{
  "version": "1.0",
  "truncation": null,
  "padding": null,
  "added_tokens": [],
  "normalizer": {
    "type": "NFKC"
  },
  "pre_tokenizer": {
    "type": "Metaspace",
    "replacement": "▁",
    "prepend_scheme": "always",
    "split": true
  },
  "post_processor": null,
  "decoder": null,
  "model": {
    "type": "Unigram",
    "unk_id": 0,
    "vocab": [
      [
        "<UNK>",
        0.0
      ],
      [
        ",",
        -3.0047448858635892
      ],
      [
        "▁",
        -3.2662284681147185
      ],
      [
        ":",
        -3.3655451218798067
      ],
      [
        ".",
        -3.7715263319569985
      ],
      [
        "▁the",
        -3.9539599778870045
      ],
      [
        "▁to",
        -4.279473990720312
      ],
      [
        ";",
        -4.459542227372069
      ],
      [
        "▁of",
        -4.463890969578426
      ],
      [
        "▁I",
        -4.5099236345657
      ],
      [
        "▁and",
        -4.681565750127211
      ],
      [
        "▁my",
        -4.688286718279937
      ],
      [
        "▁you",
        -4.791223059778252
      ],
      [
        "▁a",
        -4.826068710663875
      ],
      [
        "?",
        -4.861050997182078
      ],
      [
        "▁in",
        -4.927111960745018
      ],
      [
        "▁that",
        -4.997010898554333
      ],
      [
        "I",
        -5.0206533251511525
      ],
      [
        "s",
        -5.030097510087056
      ],
      [
        "▁not",
        -5.052209609968193
      ],
      [
        "▁And",
        -5.052540406455646
      ],
      [
        "!",
        -5.065593343297851
      ],
      [
        "▁be",
        -5.13429573468906
      ],
      [
        "▁with",
        -5.203483924804359
      ],
      [
        "▁is",
        -5.216762317308684
      ],
      [
        "▁your",
        -5.248334220189856
      ],
      [
        "▁for",
        -5.289282079190784
      ],
      [
        "▁his",
        -5.330208228604827
      ],
      [
        "▁me",
        -5.363873330800334
      ],
      [
        "▁have",
        -5.369318455577073
      ],
      [
        "'s",
        -5.428709468619502
      ],
      [
        "▁he",
        -5.443093235147849
      ],
      [
        "▁this",
        -5.457119546773746
      ],
      [
        "O",
        -5.4844847360869275
      ],
      [
        "▁thou",
        -5.52969077090186
      ],
      [
        "and",
        -5.554521259432231
      ],
      [
        "▁it",
        -5.586670147226232
      ],
      [
        "▁as",
        -5.698699051502265
      ],
      [
        "▁thy",
        -5.728381167382609
      ],
      [
        "▁will",
        -5.739428267719827
      ],
      [
        "▁but",
        -5.768306506495127
      ],
      [
        "▁him",
        -5.77812239608767
      ],
      [
        "▁so",
        -5.784084113490779
      ],
      [
        "▁The",
        -5.789972635661327
      ],
      [
        "▁To",
        -5.873437392686394
      ],
      [
        "ing",
        -5.890574076720753
      ],
      [
        "▁all",
        -5.948656409663008
      ],
      [
        "▁shall",
        -5.9620108854879845
      ],
      [
        "▁by",
        -5.980963495897592
      ],
      [
        "▁her",
        -6.009329777610109
      ],
      [
        "▁do",
        -6.012353173889084
      ],
      [
        "▁we",
        -6.026181531318194
      ],
      [
        "▁no",
        -6.033572964442861
      ],
      [
        "e",
        -6.062433582424817
      ],
      [
        "▁That",
        -6.064867979633865
      ],
      [
        "▁what",
        -6.109032377568162
      ],
      [
        "l",
        -6.122851711674683
      ],
      [
        "▁our",
        -6.124936061354129
      ],
      [
        "▁are",
        -6.1321034628427435
      ],
      [
        "▁But",
        -6.1661369763892315
      ],
      [
        "d",
        -6.169417683861163
      ],
      [
        "a",
        -6.195938306629515
      ],
      [
        "▁good",
        -6.22178838604762
      ],
      [
        "IO",
        -6.2408159544383555
      ],
      [
        "▁What",
        -6.2417332130289465
      ],
      [
        "KING",
        -6.2459954986315775
      ],
      [
        "t",
        -6.265349198651604
      ],
      [
        "'",
        -6.291544504615468
      ],
      [
        "▁from",
        -6.2942896742654035
      ],
      [
        "▁A",
        -6.373779881842755
      ],
      [
        "▁For",
        -6.377980246830575
      ],
      [
        "y",
        -6.380947468722405
      ],
      [
        "▁was",
        -6.396908749074809
      ],
      [
        "▁on",
        -6.404523367605972
      ],
      [
        "▁thee",
        -6.415154472908853
      ],
      [
        "R",
        -6.424418210141893
      ],
      [
        "▁would",
        -6.4324873505233775
      ],
      [
        "N",
        -6.433917143072383
      ],
      [
        "▁their",
        -6.457743973396554
      ],
      [
        "ed",
        -6.457881254150433
      ],
      [
        "▁more",
        -6.484001354642307
      ],
      [
        "▁she",
        -6.497384333637482
      ],
      [
        "▁My",
        -6.497884387956756
      ],
      [
        "▁am",
        -6.51236226068356
      ],
      [
        "▁I'l",
        -6.526126632497587
      ],
      [
        "Y",
        -6.529481252415725
      ],
      [
        "IUS",
        -6.538728821743339
      ],
      [
        "▁them",
        -6.561974606032387
      ],
      [
        "▁they",
        -6.563655527726884
      ],
      [
        "▁love",
        -6.572143265685613
      ],
      [
        "▁say",
        -6.583648317305618
      ],
      [
        "▁at",
        -6.599087253001654
      ],
      [
        "C",
        -6.602928655367038
      ],
      [
        "n",
        -6.621584734458602
      ],
      [
        "▁come",
        -6.625863077995084
      ],
      [
        "▁now",
        -6.633466782466632
      ],
      [
        "'d",
        -6.636018540873592
      ],
      [
        "▁As",
        -6.640657062995398
      ],
      [
        "▁hath",
        -6.641684655586631
      ],
      [
        "▁if",
        -6.644542032177409
      ],
      [
        "▁make",
        -6.655709104912448
      ],
      [
        "ly",
        -6.6610544302105295
      ],
      [
        "▁may",
        -6.674159763352193
      ],
      [
        "▁well",
        -6.678403311300527
      ],
      [
        "A",
        -6.684420439644512
      ],
      [
        "▁know",
        -6.69896587124558
      ],
      [
        "▁were",
        -6.715717787909676
      ],
      [
        "▁one",
        -6.727558207494887
      ],
      [
        "▁must",
        -6.729561137317827
      ],
      [
        "▁than",
        -6.73756806408942
      ],
      [
        "▁You",
        -6.741639713817263
      ],
      [
        "▁or",
        -6.7584536555753
      ],
      [
        "▁should",
        -6.760146908890991
      ],
      [
        "▁like",
        -6.766668429874597
      ],
      [
        "ET",
        -6.77816439587596
      ],
      [
        "▁S",
        -6.779191273003766
      ],
      [
        "▁there",
        -6.787462258593652
      ],
      [
        "▁upon",
        -6.795539751596242
      ],
      [
        "is",
        -6.800902754301308
      ],
      [
        "s,",
        -6.805580775478985
      ],
      [
        "▁let",
        -6.812661011679479
      ],
      [
        "▁then",
        -6.817063847307998
      ],
      [
        "▁us",
        -6.81963715393308
      ],
      [
        "▁here",
        -6.819800475433126
      ],
      [
        "S",
        -6.84791700185146
      ],
      [
        "▁had",
        -6.85029010165752
      ],
      [
        "F",
        -6.864683467253967
      ],
      [
        "▁which",
        -6.864995334296709
      ],
      [
        "▁an",
        -6.869496738041282
      ],
      [
        "▁go",
        -6.870749295045655
      ],
      [
        "▁He",
        -6.87112691926042
      ],
      [
        "▁If",
        -6.873279493709493
      ],
      [
        "▁see",
        -6.887017396769529
      ],
      [
        "▁O",
        -6.8872879156536495
      ],
      [
        "▁did",
        -6.898188567607653
      ],
      [
        "▁DUKE",
        -6.90466079463309
      ],
      [
        "▁how",
        -6.912554274293444
      ],
      [
        "▁death",
        -6.937560760277343
      ],
      [
        "▁B",
        -6.943253416957768
      ],
      [
        "▁RICHARD",
        -6.944103163685554
      ],
      [
        "▁you,",
        -6.949479052855755
      ],
      [
        "▁Which",
        -6.958301556913492
      ],
      [
        "▁when",
        -6.959748698800687
      ],
      [
        "▁With",
        -6.964963285597328
      ],
      [
        "▁some",
        -6.973955109847316
      ],
      [
        "US",
        -6.974665707859229
      ],
      [
        "▁speak",
        -6.979250252975903
      ],
      [
        "▁G",
        -7.003375094188253
      ],
      [
        "▁time",
        -7.00766482055394
      ],
      [
        "it",
        -7.009417472839246
      ],
      [
        "▁yet",
        -7.011949235351441
      ],
      [
        "▁too",
        -7.02463014304906
      ],
      [
        "▁Why",
        -7.026035934911989
      ],
      [
        "▁such",
        -7.02662236759937
      ],
      [
        "▁First",
        -7.0302861760563395
      ],
      [
        "▁sir,",
        -7.03166455563954
      ],
      [
        "▁out",
        -7.045139966909628
      ],
      [
        "▁man",
        -7.052886722607042
      ],
      [
        "▁king",
        -7.066877951948219
      ],
      [
        "▁give",
        -7.068150938528936
      ],
      [
        "▁these",
        -7.076388248227354
      ],
      [
        "▁In",
        -7.087392328608154
      ],
      [
        "▁can",
        -7.0927612843485965
      ],
      [
        "▁father",
        -7.100814321527681
      ],
      [
        "▁take",
        -7.10738522653297
      ],
      [
        "▁How",
        -7.1097816157936125
      ],
      [
        "▁O,",
        -7.111361605103459
      ],
      [
        "▁Of",
        -7.116898094062088
      ],
      [
        "▁So",
        -7.117733472710261
      ],
      [
        "RY",
        -7.118178836548432
      ],
      [
        "▁sir",
        -7.131473898650411
      ],
      [
        "▁This",
        -7.134845144344155
      ],
      [
        "▁Come",
        -7.14502556536399
      ],
      [
        "▁tell",
        -7.152011023750109
      ],
      [
        "▁heart",
        -7.1582481771222515
      ],
      [
        "NTI",
        -7.170948774881098
      ],
      [
        "▁Who",
        -7.179489140715654
      ],
      [
        "▁up",
        -7.185677689392932
      ],
      [
        "▁We",
        -7.187624881338055
      ],
      [
        "ABE",
        -7.188204102442369
      ],
      [
        "▁QUEEN",
        -7.196588547784566
      ],
      [
        "▁Thou",
        -7.200862903928602
      ],
      [
        "▁hear",
        -7.2120681278933505
      ],
      [
        "▁mine",
        -7.212616118353079
      ],
      [
        "▁Lord",
        -7.216472937504617
      ],
      [
        "▁much",
        -7.21844199069273
      ],
      [
        "▁most",
        -7.230894423925275
      ],
      [
        "▁made",
        -7.241505762491088
      ],
      [
        "HEN",
        -7.241636601642787
      ],
      [
        "▁me,",
        -7.2557122784008365
      ],
      [
        "▁Now",
        -7.258993458951115
      ],
      [
        "▁lord,",
        -7.263701673657431
      ],
      [
        "▁P",
        -7.278306823741209
      ],
      [
        "r",
        -7.279592580745682
      ],
      [
        "▁God",
        -7.280133241754275
      ],
      [
        "--",
        -7.281496437559085
      ],
      [
        "m",
        -7.288173537524203
      ],
      [
        "▁'tis",
        -7.297895797799769
      ],
      [
        "▁never",
        -7.306540622901954
      ],
      [
        "NCE",
        -7.312208200378558
      ],
      [
        "▁II",
        -7.317524428541714
      ],
      [
        "▁VI",
        -7.325104340805612
      ],
      [
        "T",
        -7.331054915337915
      ],
      [
        "▁fair",
        -7.341919899843857
      ],
      [
        "▁art",
        -7.34357235966541
      ],
      [
        "▁Your",
        -7.3435943861923185
      ],
      [
        "▁M",
        -7.357003019279235
      ],
      [
        "▁name",
        -7.358211329268209
      ],
      [
        "▁where",
        -7.361346305038572
      ],
      [
        "st",
        -7.363176912631962
      ],
      [
        "▁Or",
        -7.365579167615838
      ],
      [
        "▁day",
        -7.368286275507073
      ],
      [
        "▁lord",
        -7.370592747200242
      ],
      [
        "D",
        -7.376215093179191
      ],
      [
        "▁PET",
        -7.379292261380707
      ],
      [
        "▁hand",
        -7.380524512970343
      ],
      [
        "▁Is",
        -7.38220923751634
      ],
      [
        "▁think",
        -7.386117011848728
      ],
      [
        "▁any",
        -7.387272307801365
      ],
      [
        "▁been",
        -7.389001594175057
      ],
      [
        "▁Where",
        -7.389408066286003
      ],
      [
        "OME",
        -7.3942289937872
      ],
      [
        "▁EDWARD",
        -7.396357189547236
      ],
      [
        "▁cannot",
        -7.4032446502838045
      ],
      [
        "▁doth",
        -7.410372843858109
      ],
      [
        "▁noble",
        -7.41151410930711
      ],
      [
        "in",
        -7.418211537504306
      ],
      [
        "▁LUC",
        -7.425267003759358
      ],
      [
        "▁who",
        -7.431190366104332
      ],
      [
        "MENE",
        -7.434649070720775
      ],
      [
        "▁LA",
        -7.434833717631629
      ],
      [
        "▁life",
        -7.438126475493811
      ],
      [
        "P",
        -7.450179650983511
      ],
      [
        "o",
        -7.450359827078224
      ],
      [
        "very",
        -7.465105036650605
      ],
      [
        "▁When",
        -7.469977697627357
      ],
      [
        "▁Be",
        -7.480435010009951
      ],
      [
        "▁both",
        -7.485357356018679
      ],
      [
        "LOU",
        -7.48604937120668
      ],
      [
        "▁C",
        -7.48665972579555
      ],
      [
        "▁before",
        -7.487035263950834
      ],
      [
        "B",
        -7.491542514514954
      ],
      [
        "▁thee,",
        -7.501209055302489
      ],
      [
        "TH",
        -7.501283412398984
      ],
      [
        "▁world",
        -7.502786164617183
      ],
      [
        "ER",
        -7.502983414066387
      ],
      [
        "▁Let",
        -7.513559132966728
      ],
      [
        "▁true",
        -7.514583049009601
      ],
      [
        "▁sweet",
        -7.522334660089895
      ],
      [
        "▁It",
        -7.522441896875089
      ],
      [
        "▁By",
        -7.524487120709994
      ],
      [
        "LO",
        -7.527460410895157
      ],
      [
        "▁V",
        -7.528134358060921
      ],
      [
        "▁great",
        -7.528257969512433
      ],
      [
        "UCH",
        -7.529843466230791
      ],
      [
        "▁own",
        -7.534647333103861
      ],
      [
        "L",
        -7.541190385707124
      ],
      [
        "▁myself",
        -7.543368854808046
      ],
      [
        "▁blood",
        -7.543669997687066
      ],
      [
        "▁Then",
        -7.546868114649003
      ],
      [
        "▁leave",
        -7.547212217704016
      ],
      [
        "TES",
        -7.551251433132575
      ],
      [
        "▁way",
        -7.5592219416036395
      ],
      [
        "▁CORIOLANUS",
        -7.562726762040282
      ],
      [
        "IZ",
        -7.564272172649667
      ],
      [
        "▁nor",
        -7.5693208595688795
      ],
      [
        "▁being",
        -7.5697043758144185
      ],
      [
        "▁hast",
        -7.571734116784688
      ],
      [
        "▁T",
        -7.573341596440808
      ],
      [
        "▁men",
        -7.575768247539948
      ],
      [
        "▁heaven",
        -7.581360205273103
      ],
      [
        "▁night",
        -7.583787477314934
      ],
      [
        "ULI",
        -7.5865403099177575
      ],
      [
        "INCE",
        -7.586791342574044
      ],
      [
        "▁down",
        -7.59166745583625
      ],
      [
        "on",
        -7.597505858909563
      ],
      [
        "▁un",
        -7.5988527155610885
      ],
      [
        "er",
        -7.602254692555133
      ],
      [
        "th",
        -7.604093247132398
      ],
      [
        "▁AU",
        -7.605802879291352
      ],
      [
        "▁thus",
        -7.61322631510996
      ],
      [
        "▁him,",
        -7.61754563534245
      ],
      [
        "▁him.",
        -7.618982409042015
      ],
      [
        "▁brother",
        -7.624898445738377
      ],
      [
        "▁wife",
        -7.630650403743415
      ],
      [
        "▁grace",
        -7.631483931686328
      ],
      [
        "or",
        -7.635063066797088
      ],
      [
        "▁poor",
        -7.6391683517203575
      ],
      [
        "▁live",
        -7.645169359914934
      ],
      [
        "▁Go",
        -7.650069179539188
      ],
      [
        "▁away",
        -7.651832094284123
      ],
      [
        "Ay,",
        -7.651893087113962
      ],
      [
        "▁R",
        -7.654250486876287
      ],
      [
        "MIO",
        -7.654349716677794
      ],
      [
        "▁again",
        -7.654425033816772
      ],
      [
        "econd",
        -7.655147441994037
      ],
      [
        "▁Than",
        -7.655790989222749
      ],
      [
        "▁AN",
        -7.660232931067642
      ],
      [
        "▁bear",
        -7.666358368303781
      ],
      [
        "ll",
        -7.668749963188333
      ],
      [
        "▁son",
        -7.669285371510141
      ],
      [
        "M",
        -7.674450025685294
      ],
      [
        "▁look",
        -7.675701655647812
      ],
      [
        "▁No",
        -7.67625673198944
      ],
      [
        "E",
        -7.678401279011903
      ],
      [
        "▁honour",
        -7.680628659206276
      ],
      [
        "UL",
        -7.68846884158546
      ],
      [
        "▁many",
        -7.688856849886907
      ],
      [
        "▁done",
        -7.697190726676784
      ],
      [
        "▁die",
        -7.700709351390718
      ],
      [
        "▁His",
        -7.702163404601118
      ],
      [
        "▁comes",
        -7.703716774892466
      ],
      [
        "▁head",
        -7.70431124183217
      ],
      [
        "UM",
        -7.704515378126573
      ],
      [
        "if",
        -7.70461975179729
      ],
      [
        "▁'Tis",
        -7.705694101900398
      ],
      [
        "▁it.",
        -7.70595039547537
      ],
      [
        "▁old",
        -7.706088276059528
      ],
      [
        "RK",
        -7.707636495103537
      ],
      [
        "▁J",
        -7.708777384746387
      ],
      [
        "▁soul",
        -7.71148586523652
      ],
      [
        "▁pray",
        -7.713118562057083
      ],
      [
        "▁F",
        -7.71593943507064
      ],
      [
        "▁word",
        -7.723481002609976
      ],
      [
        "IN",
        -7.725387749055223
      ],
      [
        "▁nothing",
        -7.727181787313642
      ],
      [
        "▁Do",
        -7.733034287002787
      ],
      [
        "the",
        -7.736027032364646
      ],
      [
        "EST",
        -7.73733940022191
      ],
      [
        "▁ever",
        -7.738552949021573
      ],
      [
        "▁EL",
        -7.739151613400532
      ],
      [
        "▁other",
        -7.7413875909132965
      ],
      [
        "▁Well",
        -7.741667064221179
      ],
      [
        "▁house",
        -7.743718049739044
      ],
      [
        "▁better",
        -7.749858269355974
      ],
      [
        "▁call",
        -7.749933883075806
      ],
      [
        "▁stand",
        -7.755470228310133
      ],
      [
        "▁stay",
        -7.761251253978151
      ],
      [
        "▁Here",
        -7.761337151612049
      ],
      [
        "▁gone",
        -7.763008717158496
      ],
      [
        "▁prince",
        -7.772108541134643
      ],
      [
        "VOL",
        -7.773266702188718
      ],
      [
        "less",
        -7.77723064797162
      ],
      [
        "▁fear",
        -7.784104653762024
      ],
      [
        "INA",
        -7.789158127562167
      ],
      [
        "▁against",
        -7.796769367937514
      ],
      [
        "▁you.",
        -7.803114851168926
      ],
      [
        "▁those",
        -7.803746277182887
      ],
      [
        "▁Nay,",
        -7.805059159037147
      ],
      [
        "RAN",
        -7.806304496106348
      ],
      [
        "s.",
        -7.808183948255613
      ],
      [
        "▁little",
        -7.811637933273167
      ],
      [
        "▁daughter",
        -7.816460604862724
      ],
      [
        "▁face",
        -7.8185103541604315
      ],
      [
        "▁Not",
        -7.823111078652313
      ],
      [
        "STE",
        -7.827206796718452
      ],
      [
        "▁CA",
        -7.827393677402144
      ],
      [
        "▁Edward",
        -7.835100193083889
      ],
      [
        "▁two",
        -7.836150182420036
      ],
      [
        "▁Y",
        -7.837969088893279
      ],
      [
        "▁eyes",
        -7.839298364171137
      ],
      [
        "IS",
        -7.845788422021087
      ],
      [
        "▁GRE",
        -7.847817465593666
      ],
      [
        "▁off",
        -7.849380546670881
      ],
      [
        "▁thing",
        -7.852821284364414
      ],
      [
        "▁duke",
        -7.856148609543844
      ],
      [
        "▁still",
        -7.857832557366778
      ],
      [
        "▁Warwick",
        -7.8589681811779055
      ],
      [
        "▁There",
        -7.859176074583143
      ],
      [
        "▁hence",
        -7.861115699451846
      ],
      [
        "▁Citizen",
        -7.873844949968296
      ],
      [
        "▁therefore",
        -7.883136720745205
      ],
      [
        "▁it,",
        -7.884572381389095
      ],
      [
        "▁rest",
        -7.885435801179526
      ],
      [
        "▁unto",
        -7.887531638689616
      ],
      [
        "▁MAR",
        -7.8892582816392185
      ],
      [
        "▁dead",
        -7.889946223686705
      ],
      [
        "▁hope",
        -7.891013820949161
      ],
      [
        "▁tongue",
        -7.891270320845137
      ],
      [
        "▁first",
        -7.891904229731465
      ],
      [
        "▁No,",
        -7.892117514611684
      ],
      [
        "h",
        -7.895583023024069
      ],
      [
        "U",
        -7.902577526376859
      ],
      [
        "▁Have",
        -7.9063468251347535
      ],
      [
        "▁set",
        -7.912596889965316
      ],
      [
        "▁o'",
        -7.913262190047262
      ],
      [
        "'st",
        -7.914328113202401
      ],
      [
        "▁put",
        -7.9161161646089315
      ],
      [
        "IV",
        -7.91680616752515
      ],
      [
        "▁Thy",
        -7.919511001740659
      ],
      [
        "KE",
        -7.921458963873904
      ],
      [
        "-",
        -7.923153782733425
      ],
      [
        "▁though",
        -7.923997865633797
      ],
      [
        "▁queen",
        -7.924437648587382
      ],
      [
        "▁power",
        -7.9292882809677065
      ],
      [
        "▁else",
        -7.929467639939307
      ],
      [
        "▁thine",
        -7.9427765384992775
      ],
      [
        "are",
        -7.9441333731073716
      ],
      [
        "▁might",
        -7.944751079270511
      ],
      [
        "▁Richard",
        -7.9465509629530855
      ],
      [
        "▁words",
        -7.947570244575414
      ],
      [
        "▁Henry",
        -7.949223705121429
      ],
      [
        "est",
        -7.95149601711272
      ],
      [
        "WI",
        -7.953843416802286
      ],
      [
        "▁till",
        -7.955336714919213
      ],
      [
        "▁now,",
        -7.955934872448405
      ],
      [
        "▁York",
        -7.956045263211992
      ],
      [
        "▁home",
        -7.957407418730752
      ],
      [
        "▁could",
        -7.957571162206709
      ],
      [
        "NE",
        -7.96030445616864
      ],
      [
        "▁Good",
        -7.9626054485776185
      ],
      [
        "▁best",
        -7.967126230920368
      ],
      [
        "CK",
        -7.969242088909662
      ],
      [
        "at",
        -7.9696643164350744
      ],
      [
        "▁earth",
        -7.972647341319489
      ],
      [
        "WAR",
        -7.974257922980958
      ],
      [
        "▁long",
        -7.974361296805231
      ],
      [
        "▁me.",
        -7.976397372934159
      ],
      [
        "▁Will",
        -7.9807692325653985
      ],
      [
        "EL",
        -7.9874690199664204
      ],
      [
        "RUT",
        -7.989499319071715
      ],
      [
        "▁Shall",
        -7.991954125281453
      ],
      [
        "▁cause",
        -7.992327369871153
      ],
      [
        "LEO",
        -7.999793159619944
      ],
      [
        "e'er",
        -8.008661621295353
      ],
      [
        "man:",
        -8.009110271521823
      ],
      [
        "▁mean",
        -8.011019493041173
      ],
      [
        "▁Nurse",
        -8.012202753250738
      ],
      [
        "our",
        -8.014840191264636
      ],
      [
        "▁dear",
        -8.015480176281713
      ],
      [
        "▁young",
        -8.015593292604677
      ],
      [
        "▁peace",
        -8.020529872701808
      ],
      [
        "▁She",
        -8.021848847261534
      ],
      [
        "▁part",
        -8.023319810662336
      ],
      [
        "▁said",
        -8.025628815801841
      ],
      [
        "er:",
        -8.029439027750833
      ],
      [
        "▁none",
        -8.031587109307784
      ],
      [
        "▁forth",
        -8.03389292674234
      ],
      [
        "▁why",
        -8.038684088052314
      ],
      [
        "▁find",
        -8.038955767768035
      ],
      [
        "ous",
        -8.039046498285328
      ],
      [
        "▁keep",
        -8.040758264416212
      ],
      [
        "▁every",
        -8.041467646575875
      ],
      [
        "▁himself",
        -8.046019975796174
      ],
      [
        "i",
        -8.05099373288847
      ],
      [
        "LE",
        -8.052246811212875
      ],
      [
        "▁All",
        -8.055289173823255
      ],
      [
        "▁war",
        -8.055734816539712
      ],
      [
        "GE",
        -8.05818420634014
      ],
      [
        "▁CLA",
        -8.060320471506
      ],
      [
        "▁back",
        -8.07167412513083
      ],
      [
        "▁bring",
        -8.073441748687825
      ],
      [
        "ES",
        -8.082534066648861
      ],
      [
        "▁gentle",
        -8.084484205219706
      ],
      [
        "▁need",
        -8.090802350954874
      ],
      [
        "▁mind",
        -8.096624365435769
      ],
      [
        "▁tears",
        -8.09676659903204
      ],
      [
        "▁since",
        -8.098364954086621
      ],
      [
        "▁lords",
        -8.099489670197098
      ],
      [
        "▁Fro",
        -8.100717069273916
      ],
      [
        "▁right",
        -8.10118593582893
      ],
      [
        "ON",
        -8.104715068508522
      ],
      [
        "GAR",
        -8.106014369187438
      ],
      [
        "▁bid",
        -8.106039109538898
      ],
      [
        "LY",
        -8.106144897919918
      ],
      [
        "▁Yet",
        -8.11278354704064
      ],
      [
        "▁King",
        -8.112941763966667
      ],
      [
        "▁And,",
        -8.11941569616087
      ],
      [
        "▁came",
        -8.121927325541687
      ],
      [
        "▁Our",
        -8.130562416472058
      ],
      [
        "▁PA",
        -8.131835963830952
      ],
      [
        "▁help",
        -8.133816522841595
      ],
      [
        "▁hands",
        -8.139268255568254
      ],
      [
        "▁master",
        -8.139873352141302
      ],
      [
        "▁SI",
        -8.14051263320112
      ],
      [
        "▁state",
        -8.140602586316765
      ],
      [
        "▁friends",
        -8.14292412591842
      ],
      [
        "AMILL",
        -8.142973903378952
      ],
      [
        "▁royal",
        -8.143190347033878
      ],
      [
        "ING",
        -8.147954595837934
      ],
      [
        "CAL",
        -8.154312045598195
      ],
      [
        "▁Ha",
        -8.154511667110203
      ],
      [
        "to",
        -8.156130934175115
      ],
      [
        "▁once",
        -8.157538088970888
      ],
      [
        "▁whom",
        -8.163338971056376
      ],
      [
        "▁KAT",
        -8.167981533693528
      ],
      [
        "as",
        -8.168548392136913
      ],
      [
        "s;",
        -8.171196236033346
      ],
      [
        "▁Nor",
        -8.174314011214964
      ],
      [
        "▁fortune",
        -8.174802081956589
      ],
      [
        "HAR",
        -8.176805046328099
      ],
      [
        "▁thought",
        -8.176817059111684
      ],
      [
        "▁full",
        -8.17896553372584
      ],
      [
        "▁about",
        -8.183881308896268
      ],
      [
        "▁Romeo",
        -8.185049172416836
      ],
      [
        "▁'",
        -8.186235095907515
      ],
      [
        "▁They",
        -8.188477504948015
      ],
      [
        "▁heard",
        -8.188489758823092
      ],
      [
        "▁whos",
        -8.189213446186368
      ],
      [
        "us",
        -8.19281455330287
      ],
      [
        "ASTI",
        -8.19302755444834
      ],
      [
        "▁show",
        -8.193088285405246
      ],
      [
        "re",
        -8.19341210161015
      ],
      [
        "▁Marcius",
        -8.193700547814345
      ],
      [
        "▁gentleman",
        -8.195412713713356
      ],
      [
        "▁hither",
        -8.19650533814707
      ],
      [
        "▁friend",
        -8.197961754258316
      ],
      [
        "▁crown",
        -8.198850932694366
      ],
      [
        "▁prove",
        -8.201762411932005
      ],
      [
        "▁BU",
        -8.202450668546895
      ],
      [
        "▁thousand",
        -8.20604245247965
      ],
      [
        "BR",
        -8.213979320742009
      ],
      [
        "OLI",
        -8.214570663850376
      ],
      [
        "▁answer",
        -8.221679369576446
      ],
      [
        "▁lie",
        -8.224718831506298
      ],
      [
        "▁lady",
        -8.225314388034775
      ],
      [
        "▁cousin",
        -8.227246820673033
      ],
      [
        ",--",
        -8.22761542734791
      ],
      [
        "▁please",
        -8.228515160041596
      ],
      [
        "▁Clarence",
        -8.228568671059142
      ],
      [
        "K",
        -8.228926864513834
      ],
      [
        "▁eye",
        -8.229567945396887
      ],
      [
        "AND",
        -8.22989176456694
      ],
      [
        "▁gracious",
        -8.23003283990878
      ],
      [
        "▁sorrow",
        -8.233643967764149
      ],
      [
        "▁people",
        -8.233984619756711
      ],
      [
        "▁child",
        -8.238069736252086
      ],
      [
        "▁sun",
        -8.239163217073003
      ],
      [
        "▁into",
        -8.243124833132038
      ],
      [
        "▁Duke",
        -8.243478934578413
      ],
      [
        "MER",
        -8.245261207936268
      ],
      [
        "▁far",
        -8.252779047359262
      ],
      [
        "▁makes",
        -8.253260017682372
      ],
      [
        "▁mother",
        -8.253477883732089
      ],
      [
        "▁DUCHESS",
        -8.258609360094557
      ],
      [
        "▁grave",
        -8.258714224393362
      ],
      [
        "▁wilt",
        -8.262501779027168
      ],
      [
        "X",
        -8.26522750351462
      ],
      [
        "▁meet",
        -8.26603247982783
      ],
      [
        "ROS",
        -8.267342353497984
      ],
      [
        "▁Sir,",
        -8.26774897548055
      ],
      [
        "▁dost",
        -8.267889304236762
      ],
      [
        "▁king,",
        -8.269962700105609
      ],
      [
        "▁news",
        -8.274790221929372
      ],
      [
        "▁lord.",
        -8.275370405187328
      ],
      [
        "▁pardon",
        -8.275989233056261
      ],
      [
        "▁comfort",
        -8.280639988300987
      ],
      [
        "▁hour",
        -8.28454148647873
      ],
      [
        "▁grief",
        -8.287562853568565
      ],
      [
        "▁H",
        -8.292290098759928
      ],
      [
        "▁husband",
        -8.29438291142458
      ],
      [
        "▁joy",
        -8.296653404335856
      ],
      [
        "▁indeed",
        -8.299875814824823
      ],
      [
        "▁another",
        -8.303939977453613
      ],
      [
        "LL",
        -8.30923879365156
      ],
      [
        "▁then,",
        -8.3101558544741
      ],
      [
        "▁Provost",
        -8.313762766083443
      ],
      [
        "▁Would",
        -8.313774860731865
      ],
      [
        "▁so,",
        -8.315111299111482
      ],
      [
        "▁light",
        -8.327886812037306
      ],
      [
        "▁HORTENSI",
        -8.328138355054453
      ],
      [
        "▁BI",
        -8.328731166026499
      ],
      [
        "▁Eve",
        -8.32934997776785
      ],
      [
        "▁boy",
        -8.332359046875357
      ],
      [
        "▁even",
        -8.340957851788243
      ],
      [
        "▁Upon",
        -8.34205829538513
      ],
      [
        "▁after",
        -8.343731914191697
      ],
      [
        "▁has",
        -8.347349301831937
      ],
      [
        "▁hold",
        -8.355222465503351
      ],
      [
        "▁place",
        -8.35627309526841
      ],
      [
        "▁rather",
        -8.357165589070389
      ],
      [
        "▁hate",
        -8.359730388618761
      ],
      [
        "▁shame",
        -8.361381959693777
      ],
      [
        "▁father's",
        -8.367782354364296
      ],
      [
        "▁years",
        -8.367794768769087
      ],
      [
        "▁thank",
        -8.368227766953666
      ],
      [
        "▁last",
        -8.368476290304232
      ],
      [
        "▁business",
        -8.372245329991243
      ],
      [
        "▁Murder",
        -8.372290361884435
      ],
      [
        "▁Give",
        -8.372436823527448
      ],
      [
        "▁talk",
        -8.373269560131284
      ],
      [
        "▁truth",
        -8.374111293168257
      ],
      [
        "▁send",
        -8.37420789056799
      ],
      [
        "▁fall",
        -8.37582648359153
      ],
      [
        "PER",
        -8.380944533246376
      ],
      [
        "▁matter",
        -8.385892567898729
      ],
      [
        "▁Third",
        -8.38694457621634
      ],
      [
        "▁shalt",
        -8.38894790574842
      ],
      [
        "▁More",
        -8.391477199308834
      ],
      [
        "▁end",
        -8.394802029503605
      ],
      [
        "▁body",
        -8.397339508999474
      ],
      [
        "▁only",
        -8.39762147156326
      ],
      [
        "▁i",
        -8.40115982837527
      ],
      [
        "ful",
        -8.402881186063102
      ],
      [
        "▁lies",
        -8.403416758515647
      ],
      [
        "▁Clow",
        -8.4060665293859
      ],
      [
        "OR",
        -8.407936710576495
      ],
      [
        "▁kind",
        -8.410967250447204
      ],
      [
        "▁Kate",
        -8.41251858962089
      ],
      [
        "▁law",
        -8.41598029916732
      ],
      [
        "▁NOR",
        -8.417998413149263
      ],
      [
        "UCE",
        -8.418562835825062
      ],
      [
        "▁fight",
        -8.424254604644144
      ],
      [
        "STA",
        -8.42505084109839
      ],
      [
        "NG",
        -8.432160340764106
      ],
      [
        "▁Take",
        -8.432414092929594
      ],
      [
        "▁false",
        -8.433782073874186
      ],
      [
        "▁pity",
        -8.43571524105899
      ],
      [
        "▁m",
        -8.43651346861583
      ],
      [
        "an",
        -8.436833697208282
      ],
      [
        "RE",
        -8.436933663625478
      ],
      [
        "▁arms",
        -8.438859385154633
      ],
      [
        "▁use",
        -8.440396583563903
      ],
      [
        "▁wish",
        -8.4408925706847
      ],
      [
        "▁life,",
        -8.446632689090231
      ],
      [
        "▁holy",
        -8.449258136637123
      ],
      [
        "▁nature",
        -8.450729035854044
      ],
      [
        "▁sleep",
        -8.454341262119797
      ],
      [
        "▁new",
        -8.461058472773107
      ],
      [
        "▁Rome",
        -8.464650456635713
      ],
      [
        "HA",
        -8.465290150632452
      ],
      [
        "▁present",
        -8.465734473330642
      ],
      [
        "▁Servant",
        -8.466631539650487
      ],
      [
        "AN",
        -8.467292540336675
      ],
      [
        "▁Were",
        -8.469113010218777
      ],
      [
        "▁woman",
        -8.473401785267868
      ],
      [
        "f",
        -8.474089537367563
      ],
      [
        "▁gods",
        -8.476339713228874
      ],
      [
        "▁high",
        -8.477262859485624
      ],
      [
        "▁lives",
        -8.478461066624707
      ],
      [
        "W",
        -8.479668991252485
      ],
      [
        "▁POMP",
        -8.482696854314064
      ],
      [
        "▁foul",
        -8.482960313439609
      ],
      [
        "▁sovereign",
        -8.483221849071334
      ],
      [
        "ENT",
        -8.485145437647652
      ],
      [
        "▁Was",
        -8.487071454884973
      ],
      [
        "▁less",
        -8.489496534687435
      ],
      [
        "▁happy",
        -8.489607022206055
      ],
      [
        "▁lay",
        -8.489775709924299
      ],
      [
        "es",
        -8.49152905660382
      ],
      [
        "ness",
        -8.494610977778336
      ],
      [
        "▁saw",
        -8.49930961030599
      ],
      [
        "▁beseech",
        -8.50018728827572
      ],
      [
        "▁son,",
        -8.503870990028862
      ],
      [
        "▁breath",
        -8.504709463644737
      ],
      [
        "▁An",
        -8.514635496352707
      ],
      [
        "▁country",
        -8.515898461704873
      ],
      [
        "▁things",
        -8.517136474748582
      ],
      [
        "▁Look",
        -8.520436183854613
      ],
      [
        "▁three",
        -8.521264713114261
      ],
      [
        "▁within",
        -8.524340368173972
      ],
      [
        "▁traitor",
        -8.529658086348242
      ],
      [
        "▁get",
        -8.529750704523359
      ],
      [
        "▁BA",
        -8.531510650966315
      ],
      [
        "▁while",
        -8.532236055002745
      ],
      [
        "▁means",
        -8.533923083454297
      ],
      [
        "▁England",
        -8.53504325670362
      ],
      [
        "▁villain",
        -8.53509741853086
      ],
      [
        "▁proud",
        -8.536168631465285
      ],
      [
        "▁Her",
        -8.536451109604258
      ],
      [
        "▁yourself",
        -8.536914223726892
      ],
      [
        "▁kill",
        -8.539265567061632
      ],
      [
        "▁horse",
        -8.539490234856139
      ],
      [
        "RIA",
        -8.541157144952773
      ],
      [
        "▁Say",
        -8.541801423650893
      ],
      [
        "H",
        -8.555764734496089
      ],
      [
        "GON",
        -8.555784884498573
      ],
      [
        "▁doubt",
        -8.557719293431399
      ],
      [
        "▁bloody",
        -8.558843963547943
      ],
      [
        "▁land",
        -8.559651657820067
      ],
      [
        "en",
        -8.559873918756626
      ],
      [
        "▁play",
        -8.560380590278513
      ],
      [
        "ill",
        -8.560424877128352
      ],
      [
        "▁Did",
        -8.561360029053173
      ],
      [
        "▁save",
        -8.563253303240923
      ],
      [
        "▁sword",
        -8.565158093542768
      ],
      [
        "▁GR",
        -8.56816026605188
      ],
      [
        "▁children",
        -8.57107977971725
      ],
      [
        "▁let's",
        -8.57187988379168
      ],
      [
        "▁follow",
        -8.57323868364725
      ],
      [
        "▁enough",
        -8.57435901034911
      ],
      [
        "URE",
        -8.576661724878893
      ],
      [
        "▁fire",
        -8.57668655048174
      ],
      [
        "▁May",
        -8.581207694883012
      ],
      [
        "▁CO",
        -8.584540659865691
      ],
      [
        "▁looks",
        -8.587549810708115
      ],
      [
        "▁Therefore",
        -8.589695746503882
      ],
      [
        "▁majesty",
        -8.590115351922556
      ],
      [
        "▁Though",
        -8.590453167044615
      ],
      [
        "▁maid",
        -8.59261656761743
      ],
      [
        "▁late",
        -8.5929611482609
      ],
      [
        "▁uncle",
        -8.593340140130957
      ],
      [
        "▁left",
        -8.593940257983824
      ],
      [
        "▁Tybalt",
        -8.59408790105449
      ],
      [
        "▁welcome",
        -8.597737115176136
      ],
      [
        "CLIFF",
        -8.602564901498397
      ],
      [
        "▁fellow",
        -8.608060354641381
      ],
      [
        "AM",
        -8.609442577432668
      ],
      [
        "▁Ar",
        -8.610623228651045
      ],
      [
        "▁break",
        -8.612092666889021
      ],
      [
        "▁On",
        -8.613147189683765
      ],
      [
        "ere",
        -8.613752003904635
      ],
      [
        "▁Can",
        -8.614604969542816
      ],
      [
        "▁city",
        -8.61734566730466
      ],
      [
        "▁told",
        -8.618110376395656
      ],
      [
        "▁wrong",
        -8.61882683145669
      ],
      [
        "▁swear",
        -8.629122193496281
      ],
      [
        "▁farewell",
        -8.63097086774734
      ],
      [
        "▁b",
        -8.63119487376575
      ],
      [
        "▁mercy",
        -8.63257702878965
      ],
      [
        "TO",
        -8.63341190445278
      ],
      [
        "▁Angelo",
        -8.633945057920084
      ],
      [
        "of",
        -8.637245822857004
      ],
      [
        "▁kiss",
        -8.643171030484101
      ],
      [
        "▁warrant",
        -8.644119999567696
      ],
      [
        "▁does",
        -8.644222835026003
      ],
      [
        "LA",
        -8.647241439005285
      ],
      [
        "▁heavy",
        -8.648735633304849
      ],
      [
        "▁seen",
        -8.648791992497266
      ],
      [
        "▁gold",
        -8.650143709696756
      ],
      [
        "▁without",
        -8.652324565754174
      ],
      [
        "▁seem",
        -8.653980790278945
      ],
      [
        "▁mistress",
        -8.656201000970649
      ],
      [
        "▁together",
        -8.656890988832494
      ],
      [
        "▁believe",
        -8.658475245186779
      ],
      [
        "OND",
        -8.658850228138924
      ],
      [
        "▁s",
        -8.660109212279558
      ],
      [
        "▁spirit",
        -8.66247293999788
      ],
      [
        "▁oath",
        -8.664142396130472
      ],
      [
        "ignior",
        -8.666895901582661
      ],
      [
        "▁PRINCE",
        -8.66697235304712
      ],
      [
        "▁Clifford",
        -8.66719183050336
      ],
      [
        "▁here,",
        -8.669192461879627
      ],
      [
        "EN",
        -8.671094744619575
      ],
      [
        "▁lost",
        -8.671543497989063
      ],
      [
        "▁At",
        -8.679261704857266
      ],
      [
        "▁Had",
        -8.681213284982665
      ],
      [
        "▁strange",
        -8.682756769768496
      ],
      [
        "▁days",
        -8.685251216658664
      ],
      [
        "▁common",
        -8.68546338077909
      ],
      [
        "▁Some",
        -8.687121561829166
      ],
      [
        "▁to-morrow",
        -8.687775804752759
      ],
      [
        "▁thyself",
        -8.68863254029895
      ],
      [
        "▁care",
        -8.69113620914628
      ],
      [
        "▁Tell",
        -8.691800813444258
      ],
      [
        "▁Edward's",
        -8.693715703096435
      ],
      [
        "he",
        -8.696663076230898
      ],
      [
        "▁pass",
        -8.697222521388955
      ],
      [
        "▁Gentle",
        -8.702982158179669
      ],
      [
        "ELL",
        -8.703218873639932
      ],
      [
        "▁through",
        -8.705133538418965
      ],
      [
        "▁reason",
        -8.707966589350688
      ],
      [
        "▁Juliet",
        -8.70815400375394
      ],
      [
        "▁Should",
        -8.708168366544193
      ],
      [
        "▁turn",
        -8.708197774052165
      ],
      [
        "▁over",
        -8.708627633623633
      ],
      [
        "▁Away",
        -8.709176221893333
      ],
      [
        "▁free",
        -8.715107929231193
      ],
      [
        "'t",
        -8.715316953043752
      ],
      [
        "ORD",
        -8.71734738046948
      ],
      [
        "▁One",
        -8.720958605687754
      ],
      [
        "▁desire",
        -8.724313293636762
      ],
      [
        "▁fault",
        -8.726073708136616
      ],
      [
        "▁friar",
        -8.729212029155734
      ],
      [
        "▁report",
        -8.73000116729242
      ],
      [
        "▁ground",
        -8.734212787716757
      ],
      [
        "▁service",
        -8.73470963276819
      ],
      [
        "▁sight",
        -8.737164219292364
      ],
      [
        "▁under",
        -8.737686948203535
      ],
      [
        "▁arm",
        -8.737950715151733
      ],
      [
        "▁weep",
        -8.741531105192717
      ],
      [
        "▁man,",
        -8.74295588326354
      ],
      [
        "▁ears",
        -8.743733909042348
      ],
      [
        "▁sin",
        -8.745509090731932
      ],
      [
        "▁yield",
        -8.746027470018669
      ],
      [
        "▁command",
        -8.747495354818216
      ],
      [
        "▁Like",
        -8.750709758555473
      ],
      [
        "▁slain",
        -8.751248178090385
      ],
      [
        "▁straight",
        -8.751358306987687
      ],
      [
        "▁me?",
        -8.751640038970667
      ],
      [
        "▁France",
        -8.753741045197676
      ],
      [
        "▁o'er",
        -8.75477084636536
      ],
      [
        "▁near",
        -8.75511231095558
      ],
      [
        "▁Pray",
        -8.756668654805896
      ],
      [
        "▁content",
        -8.75683708030912
      ],
      [
        "▁fly",
        -8.75785376510262
      ],
      [
        "I:",
        -8.758083325341987
      ],
      [
        "▁loss",
        -8.760838341599188
      ],
      [
        "CE",
        -8.762111834103925
      ],
      [
        "▁sit",
        -8.763035469000084
      ],
      [
        "▁cold",
        -8.76401921712146
      ],
      [
        "me",
        -8.764490172030545
      ],
      [
        "G",
        -8.764615960692058
      ],
      [
        "▁mad",
        -8.767857546272275
      ],
      [
        "▁Bolingbroke",
        -8.77086097201297
      ],
      [
        "▁we'",
        -8.77091468014325
      ],
      [
        "y,",
        -8.7727888060019
      ],
      [
        "▁revenge",
        -8.772966657486279
      ],
      [
        "gainst",
        -8.773215906607883
      ],
      [
        "▁beauty",
        -8.773876113842807
      ],
      [
        "▁sea",
        -8.773959278881186
      ],
      [
        "▁beat",
        -8.776103581362364
      ],
      [
        "▁tender",
        -8.776284729451515
      ],
      [
        "LOR",
        -8.776452926048908
      ],
      [
        "ENE",
        -8.776692015456828
      ],
      [
        "▁dream",
        -8.776961538285658
      ],
      [
        "▁These",
        -8.779627780383585
      ],
      [
        "▁alone",
        -8.780399770179844
      ],
      [
        "▁married",
        -8.780766087720082
      ],
      [
        "essenger",
        -8.782821788909498
      ],
      [
        "▁Ah",
        -8.78397987983961
      ],
      [
        "▁fool",
        -8.785352441723523
      ],
      [
        "BER",
        -8.787226555983658
      ],
      [
        "OL",
        -8.789474346232879
      ],
      [
        "▁deep",
        -8.78986375462314
      ],
      [
        "▁Senator",
        -8.790663462669052
      ],
      [
        "▁Farewell",
        -8.79252058407063
      ],
      [
        "her",
        -8.792693282710106
      ],
      [
        "▁haste",
        -8.794515384488221
      ],
      [
        "▁sent",
        -8.79456133093369
      ],
      [
        "e,",
        -8.794598977634216
      ],
      [
        "▁them,",
        -8.794741042532944
      ],
      [
        "▁LE",
        -8.794978344319826
      ],
      [
        "▁brought",
        -8.796341877357534
      ],
      [
        "▁foot",
        -8.798091104784746
      ],
      [
        "▁past",
        -8.80219863246715
      ],
      [
        "▁charge",
        -8.803254874633605
      ],
      [
        "my",
        -8.80449847464588
      ],
      [
        "▁worthy",
        -8.804907086094751
      ],
      [
        "▁times",
        -8.806852973775815
      ],
      [
        "▁remember",
        -8.808333642812643
      ],
      [
        "▁born",
        -8.810204434001225
      ],
      [
        "▁person",
        -8.810740595593373
      ],
      [
        "▁soon",
        -8.812496499514998
      ],
      [
        "▁ready",
        -8.81753874722137
      ],
      [
        "▁duty",
        -8.81942165214969
      ],
      [
        "▁itself",
        -8.819853216446244
      ],
      [
        "▁Make",
        -8.821798708881781
      ],
      [
        "▁canst",
        -8.823505227798668
      ],
      [
        "▁Master",
        -8.825522638474162
      ],
      [
        "ion",
        -8.826490877488737
      ],
      [
        "se",
        -8.82652777904191
      ],
      [
        "▁found",
        -8.828808651244193
      ],
      [
        "▁God's",
        -8.830453863659152
      ],
      [
        "▁says",
        -8.83146500626508
      ],
      [
        "▁sure",
        -8.83335462029158
      ],
      [
        "▁I,",
        -8.833536624957462
      ],
      [
        "▁bed",
        -8.834733650388017
      ],
      [
        "▁grow",
        -8.836020376889827
      ],
      [
        "▁sound",
        -8.836278792533529
      ],
      [
        "▁general",
        -8.837134280399972
      ],
      [
        "▁thou,",
        -8.84092264090482
      ],
      [
        "▁MARCIUS",
        -8.843169937701985
      ],
      [
        "▁Shepherd",
        -8.843269936510275
      ],
      [
        "▁prison",
        -8.843312232957683
      ],
      [
        "▁enemy",
        -8.843772788241779
      ],
      [
        "▁fearful",
        -8.845086598433525
      ],
      [
        "▁See",
        -8.846397631140036
      ],
      [
        "▁cry",
        -8.846654444251943
      ],
      [
        "TA",
        -8.849758286698913
      ],
      [
        "▁return",
        -8.851984516363492
      ],
      [
        "w",
        -8.853277096813294
      ],
      [
        "▁ask",
        -8.855857625474872
      ],
      [
        "ALO",
        -8.85628620178238
      ],
      [
        "▁lose",
        -8.85981069331703
      ],
      [
        "▁hours",
        -8.860096448857059
      ],
      [
        "able",
        -8.862451482199583
      ],
      [
        "▁pluck",
        -8.863547619936123
      ],
      [
        "▁seek",
        -8.866308909996524
      ],
      [
        "▁sister",
        -8.868673150998472
      ],
      [
        "▁field",
        -8.870918901944247
      ],
      [
        "UT",
        -8.873281280804367
      ],
      [
        "▁I'",
        -8.874570661775287
      ],
      [
        "CU",
        -8.875536458943863
      ],
      [
        "▁age",
        -8.877493211002907
      ],
      [
        "▁wear",
        -8.879847266849033
      ],
      [
        "▁SE",
        -8.88008964684036
      ],
      [
        "▁brother,",
        -8.880106743617615
      ],
      [
        "TI",
        -8.880961019436599
      ],
      [
        "▁work",
        -8.881274588951873
      ],
      [
        "▁thoughts",
        -8.882376048307961
      ],
      [
        "▁mark",
        -8.88652309689896
      ],
      [
        "▁strike",
        -8.888034145584319
      ],
      [
        "▁change",
        -8.892024970340877
      ],
      [
        "n:",
        -8.892999172038646
      ],
      [
        "▁woe",
        -8.894388730498454
      ],
      [
        "▁Hastings",
        -8.896158083127078
      ],
      [
        "▁bound",
        -8.899662974714133
      ],
      [
        "▁marriage",
        -8.899721312905115
      ],
      [
        "▁point",
        -8.899968012020151
      ],
      [
        "s!",
        -8.900885910661094
      ],
      [
        "▁BO",
        -8.901060150197129
      ],
      [
        "▁court",
        -8.90127160753059
      ],
      [
        "▁c",
        -8.903178785573408
      ],
      [
        "▁stands",
        -8.904721567448048
      ],
      [
        "▁honest",
        -8.904942058157994
      ],
      [
        "Z",
        -8.905096338402071
      ],
      [
        "▁heir",
        -8.906826048648698
      ],
      [
        "▁open",
        -8.9075905248934
      ],
      [
        "▁Claudio",
        -8.915247677940702
      ],
      [
        "eth",
        -8.917283791502765
      ],
      [
        "▁highness",
        -8.918598062333677
      ],
      [
        "▁something",
        -8.918723405439867
      ],
      [
        "▁twenty",
        -8.919875006170773
      ],
      [
        "▁company",
        -8.920996682951898
      ],
      [
        "▁women",
        -8.923187239613982
      ],
      [
        "▁serve",
        -8.925503513399377
      ],
      [
        "▁friends,",
        -8.925616539218794
      ],
      [
        "▁Thus",
        -8.926914831329578
      ],
      [
        "▁fast",
        -8.92801504475218
      ],
      [
        "▁hard",
        -8.929856880259935
      ],
      [
        "▁counsel",
        -8.929976105687722
      ],
      [
        "▁worse",
        -8.930198133493468
      ],
      [
        "▁brave",
        -8.931326220840752
      ],
      [
        "▁purpose",
        -8.931448582080172
      ],
      [
        "▁cut",
        -8.933950291420722
      ],
      [
        "▁Sir",
        -8.934338404916694
      ],
      [
        "▁strength",
        -8.939663993179442
      ],
      [
        "AR",
        -8.940219219794768
      ],
      [
        "▁voices",
        -8.941888442565944
      ],
      [
        "on,",
        -8.942749066409169
      ],
      [
        "▁t",
        -8.943839794971545
      ],
      [
        "▁knew",
        -8.944023897604527
      ],
      [
        "▁battle",
        -8.944250820801608
      ],
      [
        "▁Lucentio",
        -8.944493982764309
      ],
      [
        "▁gentlemen",
        -8.945147497334904
      ],
      [
        "his",
        -8.946490275470179
      ],
      [
        "▁didst",
        -8.948392136134586
      ],
      [
        "▁D",
        -8.949261173192234
      ],
      [
        "▁hell",
        -8.949778640117533
      ],
      [
        "NT",
        -8.951381445867696
      ],
      [
        "DIO",
        -8.951888472919807
      ],
      [
        "▁knows",
        -8.951976305922459
      ],
      [
        "▁pleasure",
        -8.952908832073668
      ],
      [
        "▁known",
        -8.95458296597384
      ],
      [
        "▁deed",
        -8.955468520173033
      ],
      [
        "▁trust",
        -8.95562437671179
      ],
      [
        "▁ye",
        -8.955897503479004
      ],
      [
        "▁half",
        -8.958001151832532
      ],
      [
        "▁loving",
        -8.958721564577816
      ],
      [
        "▁widow",
        -8.961359354938251
      ],
      [
        "▁sad",
        -8.9615581005394
      ],
      [
        "TIS",
        -8.96431943088084
      ],
      [
        "▁air",
        -8.964612463489193
      ],
      [
        "▁mother,",
        -8.966262330112443
      ],
      [
        "▁run",
        -8.967245664691202
      ],
      [
        "▁up,",
        -8.968653804819727
      ],
      [
        "▁title",
        -8.970741274405372
      ],
      [
        "▁enemies",
        -8.971387967118037
      ],
      [
        "▁Lancaster",
        -8.971571657981777
      ],
      [
        "▁ere",
        -8.972525163845518
      ],
      [
        "▁Marry",
        -8.974469468056084
      ],
      [
        "▁rich",
        -8.979386968429449
      ],
      [
        "▁dare",
        -8.981865702305564
      ],
      [
        "▁king's",
        -8.987818235975965
      ],
      [
        "▁wit",
        -8.989909837187694
      ],
      [
        "▁each",
        -8.990102735786316
      ],
      [
        "▁bosom",
        -8.990941841547832
      ],
      [
        "▁become",
        -8.991024413129564
      ],
      [
        "▁next",
        -8.998588514234605
      ],
      [
        "▁Lady",
        -8.998783328155023
      ],
      [
        "▁Bianca",
        -8.99926225786749
      ],
      [
        "NI",
        -8.999869541383529
      ],
      [
        "▁Un",
        -9.001041472230106
      ],
      [
        "▁w",
        -9.002389384043681
      ],
      [
        "▁justice",
        -9.00537105845364
      ],
      [
        "▁queen,",
        -9.005422196801616
      ],
      [
        "▁curse",
        -9.008926422118332
      ],
      [
        "▁gates",
        -9.009484303612144
      ],
      [
        "▁withal",
        -9.009653601056598
      ],
      [
        "▁brother's",
        -9.01006450770463
      ],
      [
        "▁ANT",
        -9.01020122607509
      ],
      [
        "▁marry",
        -9.010534774512047
      ],
      [
        "▁pale",
        -9.011276819112624
      ],
      [
        "▁HER",
        -9.01157069014647
      ],
      [
        "▁you;",
        -9.011853262924477
      ],
      [
        "▁ear",
        -9.011902145851696
      ],
      [
        "▁coming",
        -9.013837061933916
      ],
      [
        "▁issue",
        -9.014577419173381
      ],
      [
        "▁ten",
        -9.017509665706141
      ],
      [
        "▁draw",
        -9.018004476511509
      ],
      [
        "▁not.",
        -9.019074188020529
      ],
      [
        "▁done,",
        -9.020027875133223
      ],
      [
        "d,",
        -9.025264405075575
      ],
      [
        "▁blood,",
        -9.026685655543012
      ],
      [
        "▁gave",
        -9.02732951453334
      ],
      [
        "▁more,",
        -9.027558249292953
      ],
      [
        "▁themselves",
        -9.027924639306018
      ],
      [
        "▁strong",
        -9.028100660155857
      ],
      [
        "▁patience",
        -9.030728934627096
      ],
      [
        "▁wind",
        -9.03164650352159
      ],
      [
        "▁jest",
        -9.035152316856308
      ],
      [
        "▁virtue",
        -9.036650841975854
      ],
      [
        "ies",
        -9.039806327353341
      ],
      [
        "▁either",
        -9.041851766864063
      ],
      [
        "▁you'l",
        -9.041895998134748
      ],
      [
        "▁office",
        -9.044309251740481
      ],
      [
        "▁Gloucester",
        -9.046149127429757
      ],
      [
        "▁confess",
        -9.046729633488209
      ],
      [
        "▁lips",
        -9.04761898744154
      ],
      [
        "▁consent",
        -9.048830660181611
      ],
      [
        "▁subject",
        -9.052089509193216
      ],
      [
        "▁FR",
        -9.052668407311822
      ],
      [
        "e.",
        -9.05507849005234
      ],
      [
        "▁tale",
        -9.056023830959514
      ],
      [
        "▁Since",
        -9.056752159683304
      ],
      [
        "▁Tranio",
        -9.056882511232203
      ],
      [
        "▁LORD",
        -9.056975993269177
      ],
      [
        "▁'twere",
        -9.057000998743877
      ],
      [
        "▁Aufidius",
        -9.057129884278428
      ],
      [
        "▁further",
        -9.057402498967965
      ],
      [
        "AP",
        -9.057427570912694
      ],
      [
        "BRA",
        -9.057734310589046
      ],
      [
        "▁youth",
        -9.058660839382615
      ],
      [
        "ward",
        -9.059133082705953
      ],
      [
        "▁forget",
        -9.059442873742489
      ],
      [
        "▁order",
        -9.059886875191768
      ],
      [
        "▁attend",
        -9.060009086477411
      ],
      [
        "▁read",
        -9.060159318974124
      ],
      [
        "▁merry",
        -9.061063854913456
      ],
      [
        "▁heavens",
        -9.063747587329786
      ],
      [
        "▁along",
        -9.064378830065866
      ],
      [
        "▁hearts",
        -9.065839267222778
      ],
      [
        "▁took",
        -9.065864643725336
      ],
      [
        "▁thanks",
        -9.06767109285746
      ],
      [
        "ERDI",
        -9.067909899137408
      ],
      [
        "▁safe",
        -9.068512659803329
      ],
      [
        "▁speed",
        -9.069351105413412
      ],
      [
        "▁madam",
        -9.071023903580292
      ],
      [
        "▁sworn",
        -9.071719721331915
      ],
      [
        "▁water",
        -9.07491124565269
      ],
      [
        "Madam,",
        -9.07606772152888
      ],
      [
        "one",
        -9.0838570893564
      ],
      [
        "all",
        -9.084718949224817
      ],
      [
        "▁JOHN",
        -9.086709487378936
      ],
      [
        "▁request",
        -9.087267911284572
      ],
      [
        "▁already",
        -9.087373724730073
      ],
      [
        "▁Hereford",
        -9.087421610568443
      ],
      [
        "▁morning",
        -9.0880648047849
      ],
      [
        "▁Call",
        -9.091435699198312
      ],
      [
        "▁entreat",
        -9.091918965253807
      ],
      [
        "▁suit",
        -9.092674689315217
      ],
      [
        "▁often",
        -9.093431207784743
      ],
      [
        "▁just",
        -9.09455766363167
      ],
      [
        "▁again,",
        -9.094618067467364
      ],
      [
        "▁want",
        -9.095708611275573
      ],
      [
        "▁same",
        -9.098653171912655
      ],
      [
        "al",
        -9.100436891068302
      ],
      [
        "▁win",
        -9.101475613423295
      ],
      [
        "▁Petruchio",
        -9.101687374767838
      ],
      [
        "▁harm",
        -9.101703214708785
      ],
      [
        "▁E",
        -9.104447177347653
      ],
      [
        "▁ha",
        -9.107541355648268
      ],
      [
        "▁W",
        -9.108436552962884
      ],
      [
        "▁learn",
        -9.111437952595795
      ],
      [
        "▁'Tw",
        -9.111634018397378
      ],
      [
        "▁watch",
        -9.11209549648393
      ],
      [
        "us,",
        -9.112840935429071
      ],
      [
        "▁honour,",
        -9.11579758269728
      ],
      [
        "▁goes",
        -9.117024887187856
      ],
      [
        "▁devil",
        -9.11761842862004
      ],
      [
        "▁Speak",
        -9.11818500658301
      ],
      [
        "▁Before",
        -9.118450289083563
      ],
      [
        "▁Richmond",
        -9.11859361873006
      ],
      [
        "▁neither",
        -9.118626046657061
      ],
      [
        "▁between",
        -9.11865347084598
      ],
      [
        "▁Tower",
        -9.118926426611093
      ],
      [
        "▁banish'd",
        -9.119185518080013
      ],
      [
        "▁bold",
        -9.120162038117467
      ],
      [
        "▁close",
        -9.120189606510849
      ],
      [
        "▁all,",
        -9.122604107799479
      ],
      [
        "▁wonder",
        -9.124986603426443
      ],
      [
        "▁Romeo,",
        -9.125923242995277
      ],
      [
        "▁grant",
        -9.126229618364073
      ],
      [
        "▁'twas",
        -9.129746446632701
      ],
      [
        "▁wounds",
        -9.130201876633155
      ],
      [
        "▁given",
        -9.133066354583512
      ],
      [
        "▁case",
        -9.135962961254439
      ],
      [
        "▁it?",
        -9.136496396831578
      ],
      [
        "VER",
        -9.136872410475744
      ],
      [
        "▁bad",
        -9.143545532011903
      ],
      [
        "▁soldiers",
        -9.145043537576734
      ],
      [
        "▁poison",
        -9.145653464772845
      ],
      [
        "▁spoke",
        -9.14617292183829
      ],
      [
        "▁BE",
        -9.147299314005476
      ],
      [
        "▁speech",
        -9.148396674735265
      ],
      [
        "IC",
        -9.149083798222474
      ],
      [
        "▁souls",
        -9.149557927684285
      ],
      [
        "▁dangerous",
        -9.150031215988264
      ],
      [
        "▁presence",
        -9.150800022806742
      ],
      [
        "▁Unless",
        -9.150848404058031
      ],
      [
        "▁Must",
        -9.151224829961023
      ],
      [
        "▁Because",
        -9.151292797036954
      ],
      [
        "▁yours",
        -9.151458916758317
      ],
      [
        "▁to-day",
        -9.151622365069432
      ],
      [
        "▁having",
        -9.154811512245361
      ],
      [
        "age",
        -9.155902048803132
      ],
      [
        "▁Welcome",
        -9.155963793073242
      ],
      [
        "▁feel",
        -9.156188417071949
      ],
      [
        "▁quarrel",
        -9.157533041224731
      ],
      [
        "▁worship",
        -9.158286293867747
      ],
      [
        "▁fit",
        -9.159194273341448
      ],
      [
        "▁this,",
        -9.166447183023136
      ],
      [
        "▁chance",
        -9.1664672047271
      ],
      [
        "▁worth",
        -9.167339418160184
      ],
      [
        "ed,",
        -9.167417471904436
      ],
      [
        "HAS",
        -9.176358527032242
      ],
      [
        "▁foe",
        -9.176819584885433
      ],
      [
        "▁begin",
        -9.177979283695457
      ],
      [
        "▁throw",
        -9.177981092554806
      ],
      [
        "▁re",
        -9.18055126488553
      ],
      [
        "▁liege,",
        -9.181734752892725
      ],
      [
        "▁touch",
        -9.182341818539609
      ],
      [
        "▁Keep",
        -9.183478526841887
      ],
      [
        "▁London",
        -9.183842591212521
      ],
      [
        "▁Both",
        -9.18438314858708
      ],
      [
        "▁to-night",
        -9.184552021568221
      ],
      [
        "▁deny",
        -9.18545065968491
      ],
      [
        "▁that,",
        -9.185459966281552
      ],
      [
        "▁throne",
        -9.186913699025904
      ],
      [
        "ERC",
        -9.186971526795208
      ],
      [
        "▁breast",
        -9.187629133749905
      ],
      [
        "▁call'd",
        -9.188491646800827
      ],
      [
        "▁Saint",
        -9.188548479251663
      ],
      [
        "▁is,",
        -9.190403828780148
      ],
      [
        "▁mine,",
        -9.190782530845905
      ],
      [
        "▁offence",
        -9.19156933663104
      ],
      [
        "▁di",
        -9.194595718879832
      ],
      [
        "▁pay",
        -9.197144712358671
      ],
      [
        "▁mock",
        -9.199379903869191
      ],
      [
        "▁more.",
        -9.201053679361406
      ],
      [
        "▁move",
        -9.203383220783497
      ],
      [
        "▁Rome,",
        -9.20510007094054
      ],
      [
        "▁sake",
        -9.206633475117851
      ],
      [
        "▁behold",
        -9.208634420929837
      ],
      [
        "▁thence",
        -9.212115544450336
      ],
      [
        "BALT",
        -9.213455943143604
      ],
      [
        "▁mighty",
        -9.213559276233328
      ],
      [
        "▁murder",
        -9.214103886367063
      ],
      [
        "▁promise",
        -9.214940275963757
      ],
      [
        "▁black",
        -9.2158012910259
      ],
      [
        "▁th",
        -9.216082793832374
      ],
      [
        "▁Paris",
        -9.218124857817495
      ],
      [
        "▁ancient",
        -9.21848147088137
      ],
      [
        "▁hang",
        -9.218839976296296
      ],
      [
        "▁Baptista",
        -9.218848217942863
      ],
      [
        "▁seems",
        -9.219166159752763
      ],
      [
        "▁Lest",
        -9.220299386858255
      ],
      [
        "▁Ere",
        -9.221405447225768
      ],
      [
        "▁bawd",
        -9.221980296632559
      ],
      [
        "▁Roman",
        -9.222007086360891
      ],
      [
        "▁wise",
        -9.225147589747568
      ],
      [
        "not",
        -9.227018878192084
      ],
      [
        "▁crown,",
        -9.227943622123945
      ],
      [
        "s:",
        -9.230971584719642
      ],
      [
        "▁prayers",
        -9.233164846604474
      ],
      [
        "▁appear",
        -9.236710507946842
      ],
      [
        "men",
        -9.23871851760536
      ],
      [
        "▁course",
        -9.240400012570309
      ],
      [
        "▁Yes",
        -9.240857225784943
      ],
      [
        "▁buy",
        -9.245729834493783
      ],
      [
        "look'd",
        -9.247422897906407
      ],
      [
        "▁deeds",
        -9.247513225281384
      ],
      [
        "▁dead,",
        -9.249493631171198
      ],
      [
        "us.",
        -9.251406018664522
      ],
      [
        "▁flesh",
        -9.25391714751318
      ],
      [
        "▁fetch",
        -9.254006739172956
      ],
      [
        "▁valiant",
        -9.254061482501132
      ],
      [
        "s?",
        -9.254663312399503
      ],
      [
        "▁Stand",
        -9.257776234695761
      ],
      [
        "▁rage",
        -9.257960563459513
      ],
      [
        "▁moon",
        -9.263174884970391
      ],
      [
        "▁d",
        -9.263372592569425
      ],
      [
        "ID",
        -9.268782498595954
      ],
      [
        "SH",
        -9.26927839562062
      ],
      [
        "▁Coriolanus",
        -9.271608450886601
      ],
      [
        "▁wars",
        -9.273692614934408
      ],
      [
        "nd",
        -9.273989832788121
      ],
      [
        "ay,",
        -9.274486032637004
      ],
      [
        "▁side",
        -9.27660976673724
      ],
      [
        "b",
        -9.277843202786725
      ],
      [
        "ers",
        -9.27943814092428
      ],
      [
        "▁to't",
        -9.280150285966501
      ],
      [
        "▁base",
        -9.284122617001168
      ],
      [
        "▁loved",
        -9.285707446284384
      ],
      [
        "3",
        -9.286189115454176
      ],
      [
        "▁hot",
        -9.290600163266
      ],
      [
        "▁Oxford",
        -9.290900399677762
      ],
      [
        "▁prithee",
        -9.291225467102008
      ],
      [
        "▁Hortensio",
        -9.291226685600547
      ],
      [
        "▁crave",
        -9.292265916364718
      ],
      [
        "▁plain",
        -9.292602805277832
      ],
      [
        "▁least",
        -9.292894780154471
      ],
      [
        "▁eyes,",
        -9.297181623729491
      ],
      [
        "▁hide",
        -9.297968158897278
      ],
      [
        "▁kill'd",
        -9.298695338406475
      ],
      [
        "▁post",
        -9.300155859413975
      ],
      [
        "▁forward",
        -9.30116415868046
      ],
      [
        "▁Servi",
        -9.301629336489308
      ],
      [
        "by",
        -9.301707457568684
      ],
      [
        "▁loves",
        -9.302048024760738
      ],
      [
        "▁soft",
        -9.303121476408233
      ],
      [
        "▁mortal",
        -9.303363381639613
      ],
      [
        "▁kingdom",
        -9.303395724432157
      ],
      [
        "old",
        -9.303830491009725
      ],
      [
        "ILI",
        -9.304368935413816
      ],
      [
        "i'",
        -9.305206360917838
      ],
      [
        "▁news?",
        -9.308358147829935
      ],
      [
        "▁L",
        -9.309167033859978
      ],
      [
        "▁TY",
        -9.309982644265382
      ],
      [
        "▁nurse",
        -9.31446442306368
      ],
      [
        "MI",
        -9.315039730049126
      ],
      [
        "▁faith",
        -9.316079102793474
      ],
      [
        "UC",
        -9.316393025555918
      ],
      [
        "▁sons",
        -9.317044756004696
      ],
      [
        "▁Think",
        -9.319831754505392
      ],
      [
        "▁madam,",
        -9.320539455930012
      ],
      [
        "▁man's",
        -9.323367354546152
      ],
      [
        "▁George",
        -9.323910788825861
      ],
      [
        "am",
        -9.32491715963492
      ],
      [
        "▁'em",
        -9.328621062257671
      ],
      [
        "▁visit",
        -9.328655353477037
      ],
      [
        "▁Pompey",
        -9.329295149269841
      ],
      [
        "▁Bohemia",
        -9.329430861167516
      ],
      [
        "▁Katharina",
        -9.329621354313016
      ],
      [
        "▁pretty",
        -9.32963470491601
      ],
      [
        "▁Northumberland",
        -9.32987517769296
      ],
      [
        "▁defend",
        -9.330360068277994
      ],
      [
        "like",
        -9.331729878971222
      ],
      [
        "out",
        -9.332452929517432
      ],
      [
        "▁whence",
        -9.332827406896069
      ],
      [
        "▁is't",
        -9.333583831283253
      ],
      [
        "▁thither",
        -9.335345729719663
      ],
      [
        "UE",
        -9.336832722115858
      ],
      [
        "▁almost",
        -9.337558797020087
      ],
      [
        "▁Hark",
        -9.339955466689581
      ],
      [
        "▁met",
        -9.340000719494252
      ],
      [
        "▁MI",
        -9.341027589045932
      ],
      [
        "▁fresh",
        -9.347477227759436
      ],
      [
        "▁deliver",
        -9.34843819835159
      ],
      [
        "▁tear",
        -9.349841492045499
      ],
      [
        "▁heads",
        -9.351346809304975
      ],
      [
        "ly,",
        -9.35233466102733
      ],
      [
        "art",
        -9.356896742877414
      ],
      [
        "▁me!",
        -9.357323710397303
      ],
      [
        "▁Serv",
        -9.358389638995654
      ],
      [
        "▁favour",
        -9.363228968498754
      ],
      [
        "▁slave",
        -9.364423871978838
      ],
      [
        "e;",
        -9.365426634580228
      ],
      [
        "V",
        -9.367726131466235
      ],
      [
        "▁short",
        -9.367770313935182
      ],
      [
        "▁patient",
        -9.368966290090714
      ],
      [
        "▁feast",
        -9.368987608186412
      ],
      [
        "▁Sweet",
        -9.369005047056106
      ],
      [
        "▁walk",
        -9.369203214683795
      ],
      [
        "ir",
        -9.370322560002643
      ],
      [
        "▁cheer",
        -9.370472716467692
      ],
      [
        "▁quickly",
        -9.370494730902319
      ],
      [
        "▁living",
        -9.370497963258265
      ],
      [
        "▁toward",
        -9.370575149842121
      ],
      [
        "▁awhile",
        -9.370636587970239
      ],
      [
        "▁enter",
        -9.373635816525763
      ],
      [
        "▁neck",
        -9.374425765280218
      ],
      [
        "▁Peace",
        -9.374908879389935
      ],
      [
        "DA",
        -9.375455660594804
      ],
      [
        "▁subjects",
        -9.376195940994487
      ],
      [
        "▁hadst",
        -9.377089347858279
      ],
      [
        "▁glad",
        -9.377206927156895
      ],
      [
        "▁mouth",
        -9.377644322942697
      ],
      [
        "▁wert",
        -9.377733325493352
      ],
      [
        "▁book",
        -9.378066763730443
      ],
      [
        "OP",
        -9.378981619903698
      ],
      [
        "▁Margaret",
        -9.379055031804041
      ],
      [
        "▁knock",
        -9.379824145965888
      ],
      [
        "▁knee",
        -9.381519420197066
      ],
      [
        "ngman",
        -9.381681208293383
      ],
      [
        "▁certain",
        -9.38221100314596
      ],
      [
        "ation",
        -9.38404055857302
      ],
      [
        "▁beg",
        -9.385046661115037
      ],
      [
        "▁Hold",
        -9.38557918454876
      ],
      [
        "▁will,",
        -9.385793560664421
      ],
      [
        "▁unti",
        -9.386284272856853
      ],
      [
        "▁stir",
        -9.386429233698365
      ],
      [
        "▁him!",
        -9.386726182212639
      ],
      [
        "me,",
        -9.387500722086752
      ],
      [
        "▁goodly",
        -9.388448794519825
      ],
      [
        "ANC",
        -9.389353395651963
      ],
      [
        "▁ill",
        -9.390451354553544
      ],
      [
        "RG",
        -9.390768538940364
      ],
      [
        "▁march",
        -9.39135688645197
      ],
      [
        "▁wash",
        -9.396893477453084
      ],
      [
        "▁fie",
        -9.397142954243652
      ],
      [
        "▁flatter",
        -9.397527900019766
      ],
      [
        "g",
        -9.39918738268607
      ],
      [
        "▁hearing",
        -9.401511662787337
      ],
      [
        "AG",
        -9.403258021803595
      ],
      [
        "▁blow",
        -9.40351561045409
      ],
      [
        "▁Th",
        -9.404001643736965
      ],
      [
        "▁mine.",
        -9.40432308941014
      ],
      [
        "▁weak",
        -9.404788374462914
      ],
      [
        "▁piece",
        -9.40728683007891
      ],
      [
        "▁year",
        -9.407532330624202
      ],
      [
        "▁witness",
        -9.40892715270307
      ],
      [
        "▁womb",
        -9.410385720045488
      ],
      [
        "▁angry",
        -9.410625096328616
      ],
      [
        "▁Isabel",
        -9.410766104299443
      ],
      [
        "▁slew",
        -9.410777586368322
      ],
      [
        "ixt",
        -9.410923148078565
      ],
      [
        "▁here's",
        -9.411237513430947
      ],
      [
        "NA",
        -9.412542983433909
      ],
      [
        "IAN",
        -9.412883254874188
      ],
      [
        "▁guilty",
        -9.415241609068122
      ],
      [
        "ath",
        -9.41537341771598
      ],
      [
        "▁measure",
        -9.41577293175234
      ],
      [
        "ing,",
        -9.417362526334177
      ],
      [
        "▁Stay",
        -9.418572936692847
      ],
      [
        "▁greater",
        -9.418667774136452
      ],
      [
        "RIS",
        -9.41877863979012
      ],
      [
        "▁weeping",
        -9.41886538855312
      ],
      [
        "▁worst",
        -9.418990907065483
      ],
      [
        "▁on't",
        -9.419250107057962
      ],
      [
        "▁vow",
        -9.419567542425547
      ],
      [
        "▁kings",
        -9.41973839437075
      ],
      [
        "▁voice",
        -9.420177232556568
      ],
      [
        "▁deserved",
        -9.420591498669399
      ],
      [
        "▁music",
        -9.420836609315899
      ],
      [
        "▁lawful",
        -9.42199811855634
      ],
      [
        "▁town",
        -9.42274162721419
      ],
      [
        "▁ho!",
        -9.422902759708379
      ],
      [
        "▁shepherd",
        -9.426758905504123
      ],
      [
        "▁prisoner",
        -9.42810313204958
      ],
      [
        "▁sense",
        -9.429223866317496
      ],
      [
        "▁Montague",
        -9.43012397326785
      ],
      [
        "be",
        -9.43382267312338
      ],
      [
        "▁blows",
        -9.436545587967007
      ],
      [
        "▁servant",
        -9.437360099988325
      ],
      [
        "▁While",
        -9.43897468734913
      ],
      [
        "ONT",
        -9.438997166110594
      ],
      [
        "▁treason",
        -9.441280262516234
      ],
      [
        "▁Buckingham",
        -9.443642000593854
      ],
      [
        "▁sudden",
        -9.452801117727073
      ],
      [
        "▁Padua",
        -9.454030948169828
      ],
      [
        "▁Gremio",
        -9.454209879516194
      ],
      [
        "▁Grumio",
        -9.454210126489864
      ],
      [
        "▁Plantagenet",
        -9.454659735698293
      ],
      [
        "▁liberty",
        -9.454864964243619
      ],
      [
        "king",
        -9.456096886800422
      ],
      [
        "▁Watch",
        -9.457432545429215
      ],
      [
        "▁here.",
        -9.458324674115602
      ],
      [
        "▁Out",
        -9.459337786869618
      ],
      [
        "▁think,",
        -9.45938953222423
      ],
      [
        "▁noise",
        -9.45982862994116
      ],
      [
        "▁dis",
        -9.461408009230917
      ],
      [
        "▁five",
        -9.461644448408403
      ],
      [
        "▁remain",
        -9.464231113000523
      ],
      [
        "▁ourselves",
        -9.464374268388374
      ],
      [
        "▁clouds",
        -9.464440155106285
      ],
      [
        "▁h",
        -9.46487985186356
      ],
      [
        "▁act",
        -9.466170812096353
      ],
      [
        "▁dance",
        -9.466474126975154
      ],
      [
        "▁fled",
        -9.46670667277948
      ],
      [
        "Yea,",
        -9.466876760762673
      ],
      [
        "p",
        -9.468319103907369
      ],
      [
        "▁got",
        -9.470375642616226
      ],
      [
        "▁chamber",
        -9.471375823385651
      ],
      [
        "▁wouldst",
        -9.471396760303882
      ],
      [
        "cause",
        -9.471672203881548
      ],
      [
        "▁drink",
        -9.472063480873299
      ],
      [
        "▁letters",
        -9.472121671785493
      ],
      [
        "▁breathe",
        -9.476805543541293
      ],
      [
        "▁won",
        -9.477886515744938
      ],
      [
        "▁fine",
        -9.478253606861458
      ],
      [
        "▁sick",
        -9.478497080117318
      ],
      [
        "▁virtuous",
        -9.47878112484805
      ],
      [
        "▁Suc",
        -9.479641413963575
      ],
      [
        "▁secret",
        -9.48108397018523
      ],
      [
        "▁ta'en",
        -9.481227194009417
      ],
      [
        "▁slander",
        -9.483804005469619
      ],
      [
        "▁consul",
        -9.4839043203891
      ],
      [
        "▁letter",
        -9.488161854760353
      ],
      [
        "▁action",
        -9.495056589744976
      ],
      [
        "▁dog",
        -9.495331138504763
      ],
      [
        "▁leisure",
        -9.49665740691946
      ],
      [
        "▁bitter",
        -9.497691746424726
      ],
      [
        "▁vain",
        -9.499309590373016
      ],
      [
        "▁Gaunt",
        -9.499488741200645
      ],
      [
        "▁above",
        -9.499501365714789
      ],
      [
        "▁hundred",
        -9.499706924438595
      ],
      [
        "▁summer",
        -9.500313319005842
      ],
      [
        "▁stop",
        -9.500722303009086
      ],
      [
        "▁Se",
        -9.500778271499929
      ],
      [
        "▁choose",
        -9.501323380410005
      ],
      [
        "▁behind",
        -9.503851829473811
      ],
      [
        "▁victory",
        -9.504434750106784
      ],
      [
        "▁Fear",
        -9.504481417123584
      ],
      [
        "▁bones",
        -9.504622229971504
      ],
      [
        "▁do't",
        -9.505665919294087
      ],
      [
        "▁lack",
        -9.506018510223527
      ],
      [
        "▁rough",
        -9.507105727974501
      ],
      [
        "▁Sirrah",
        -9.507422114361177
      ],
      [
        "▁longer",
        -9.507559480138173
      ],
      [
        "▁people,",
        -9.508810930308869
      ],
      [
        "▁conscience",
        -9.509224112606267
      ],
      [
        "▁white",
        -9.510028561745255
      ],
      [
        "▁danger",
        -9.510423219399568
      ],
      [
        "▁four",
        -9.510834007678671
      ],
      [
        "▁broke",
        -9.511564500937512
      ],
      [
        "'d,",
        -9.512238557834195
      ],
      [
        "le",
        -9.512562662962253
      ],
      [
        "▁judge",
        -9.516466973570395
      ],
      [
        "▁quiet",
        -9.517065801784378
      ],
      [
        "PS",
        -9.517164529866362
      ],
      [
        "▁shows",
        -9.517404072014804
      ],
      [
        "▁encounter",
        -9.518409557515422
      ],
      [
        "▁nay",
        -9.518482126551717
      ],
      [
        "▁aside",
        -9.518728865647198
      ],
      [
        "▁frown",
        -9.518954305035695
      ],
      [
        "▁seat",
        -9.519438661334462
      ],
      [
        "▁held",
        -9.521196564489063
      ],
      [
        "▁Camillo",
        -9.522547351070992
      ],
      [
        "▁second",
        -9.523530474712121
      ],
      [
        "▁nurse,",
        -9.525465659319643
      ],
      [
        "▁father.",
        -9.527165068429174
      ],
      [
        "▁man.",
        -9.527622035126575
      ],
      [
        "▁pain",
        -9.528461497043311
      ],
      [
        "CI",
        -9.528788082140203
      ],
      [
        "▁labour",
        -9.529779414655085
      ],
      [
        "Alas,",
        -9.532157339324376
      ],
      [
        "▁MO",
        -9.533324929480072
      ],
      [
        "▁self",
        -9.533457020596709
      ],
      [
        "▁presently",
        -9.533567671272198
      ],
      [
        "though",
        -9.536380331004976
      ],
      [
        "▁soldier",
        -9.538487718294714
      ],
      [
        "▁sort",
        -9.538648513931982
      ],
      [
        "▁tribunes",
        -9.538981228675866
      ],
      [
        "▁wast",
        -9.541765970280785
      ],
      [
        "BU",
        -9.544394091342243
      ],
      [
        "▁dark",
        -9.544861091212164
      ],
      [
        "▁Norfolk,",
        -9.545541782265465
      ],
      [
        "▁swift",
        -9.545670201661249
      ],
      [
        "▁small",
        -9.546782266033535
      ],
      [
        "▁pride",
        -9.546926701269326
      ],
      [
        "▁Catesby",
        -9.54723238533658
      ],
      [
        "es,",
        -9.547295658824417
      ],
      [
        "▁precious",
        -9.547350003804336
      ],
      [
        "▁yourselves",
        -9.547690725018002
      ],
      [
        "▁Unto",
        -9.548002106359366
      ],
      [
        "▁blessed",
        -9.548359858429407
      ],
      [
        "▁RI",
        -9.548427347532316
      ],
      [
        "▁desperate",
        -9.548794367005414
      ],
      [
        "ment",
        -9.549021863450019
      ],
      [
        "▁kneel",
        -9.550568927593414
      ],
      [
        "▁citizens",
        -9.551874582955698
      ],
      [
        "▁n",
        -9.552702206077022
      ],
      [
        "▁knowledge",
        -9.55295528997063
      ],
      [
        "▁Hear",
        -9.555417623759794
      ],
      [
        "▁seven",
        -9.555453485191983
      ],
      [
        "ither",
        -9.55586365028477
      ],
      [
        "▁stood",
        -9.55802732889483
      ],
      [
        "▁coward",
        -9.558540523553331
      ],
      [
        "▁dry",
        -9.559214302440392
      ],
      [
        "▁'t",
        -9.55967332170619
      ],
      [
        "y.",
        -9.559729391049885
      ],
      [
        "ARI",
        -9.560396036539384
      ],
      [
        "▁lived",
        -9.560699833572178
      ],
      [
        "▁shake",
        -9.561625140620379
      ],
      [
        "▁suffer",
        -9.56198181061099
      ],
      [
        "▁humble",
        -9.562387594923973
      ],
      [
        "▁woo",
        -9.56247364915665
      ],
      [
        "that",
        -9.563134175952719
      ],
      [
        "▁offer",
        -9.563423531734795
      ],
      [
        "▁towards",
        -9.563513900245423
      ],
      [
        "▁DOR",
        -9.564063100094483
      ],
      [
        "▁doom",
        -9.564149104636046
      ],
      [
        "ther",
        -9.566432211017222
      ],
      [
        "u",
        -9.568022989140346
      ],
      [
        "ce",
        -9.568111152578656
      ],
      [
        "ould",
        -9.570791657684362
      ],
      [
        "▁faith,",
        -9.57272420587292
      ],
      [
        "ling",
        -9.578778824249351
      ],
      [
        "▁forgot",
        -9.580692601413517
      ],
      [
        "▁knees",
        -9.58104285050257
      ],
      [
        "▁manner",
        -9.581417093094984
      ],
      [
        "▁lead",
        -9.582123736826999
      ],
      [
        "IA",
        -9.586179103778722
      ],
      [
        "▁Ear",
        -9.588343831973294
      ],
      [
        "ble",
        -9.588636020455638
      ],
      [
        "▁Wh",
        -9.589980348766332
      ],
      [
        "▁sour",
        -9.594182375907835
      ],
      [
        "▁kept",
        -9.596566739023764
      ],
      [
        "▁John",
        -9.596573305206864
      ],
      [
        "▁cruel",
        -9.596779198660034
      ],
      [
        "▁English",
        -9.596978893178218
      ],
      [
        "▁struck",
        -9.597061258462887
      ],
      [
        "▁money",
        -9.597076125909286
      ],
      [
        "▁Aumerle",
        -9.59712769249758
      ],
      [
        "▁Mowbray",
        -9.597127892925336
      ],
      [
        "▁fought",
        -9.597558204394561
      ],
      [
        "▁creature",
        -9.599929712125267
      ],
      [
        "▁methinks",
        -9.600068466871555
      ],
      [
        "▁woes",
        -9.600460796898014
      ],
      [
        "▁cross",
        -9.600627268122786
      ],
      [
        "▁deadly",
        -9.600784106115734
      ],
      [
        "▁lordship",
        -9.601881917098593
      ],
      [
        "▁guess",
        -9.602798912804802
      ],
      [
        "▁few",
        -9.603089447428918
      ],
      [
        "▁man;",
        -9.604032867157215
      ],
      [
        "▁idle",
        -9.605178901764683
      ],
      [
        "▁promised",
        -9.609442829641985
      ],
      [
        "▁quot",
        -9.612404795668752
      ],
      [
        "TON",
        -9.615987995070213
      ],
      [
        "ight",
        -9.616174753384644
      ],
      [
        "▁flowers",
        -9.617402824887643
      ],
      [
        "▁wisdom",
        -9.620113075684856
      ],
      [
        "▁Camillo,",
        -9.623851271489272
      ],
      [
        "▁cheeks",
        -9.625210653027187
      ],
      [
        "▁warm",
        -9.629746076187214
      ],
      [
        "▁laid",
        -9.63009234584273
      ],
      [
        "▁co",
        -9.63035334117095
      ],
      [
        "▁lands",
        -9.632062963306822
      ],
      [
        "▁himself,",
        -9.632948272523853
      ],
      [
        "▁rise",
        -9.633377885452052
      ],
      [
        "▁officer",
        -9.634291893347122
      ],
      [
        "▁steel",
        -9.637146412383895
      ],
      [
        "▁p",
        -9.638669627160306
      ],
      [
        "▁thee?",
        -9.63975001195966
      ],
      [
        "▁beggar",
        -9.640037872957897
      ],
      [
        "FI",
        -9.64011884240563
      ],
      [
        "GO",
        -9.640449423433282
      ],
      [
        "for",
        -9.640536019656253
      ],
      [
        "▁faults",
        -9.641065419823011
      ],
      [
        "▁stone",
        -9.642301924988676
      ],
      [
        "▁doing",
        -9.642984500375569
      ],
      [
        "▁despair",
        -9.644350071019108
      ],
      [
        "▁army",
        -9.645608271376537
      ],
      [
        "▁in't",
        -9.645859179786154
      ],
      [
        "▁kinsman",
        -9.646268838142241
      ],
      [
        "▁Mo",
        -9.64793176737561
      ],
      [
        "▁speaks",
        -9.64803630239436
      ],
      [
        "will",
        -9.648560287903244
      ],
      [
        "▁Lewis",
        -9.649343271033946
      ],
      [
        "▁blame",
        -9.649382597056096
      ],
      [
        "▁valour",
        -9.649490418216221
      ],
      [
        "▁Heaven",
        -9.649532812861118
      ],
      [
        "▁among",
        -9.649553503653213
      ],
      [
        "▁scarce",
        -9.64958110665073
      ],
      [
        "▁perceive",
        -9.649739015778012
      ],
      [
        "▁Mercutio",
        -9.649746769289859
      ],
      [
        "▁account",
        -9.649763651023957
      ],
      [
        "▁kindred",
        -9.649794454418757
      ],
      [
        "▁EX",
        -9.650248614522067
      ],
      [
        "▁six",
        -9.650357201901706
      ],
      [
        "▁charity",
        -9.650680914789517
      ],
      [
        "▁Put",
        -9.650810981933915
      ],
      [
        "▁Mine",
        -9.651822644511133
      ],
      [
        "▁Made",
        -9.651879608390953
      ],
      [
        "▁herself",
        -9.65213255976915
      ],
      [
        "ost",
        -9.652159014688841
      ],
      [
        "▁morrow",
        -9.652954784339547
      ],
      [
        "▁Pardon",
        -9.653059774711501
      ],
      [
        "▁liege",
        -9.65311781593022
      ],
      [
        "▁know'st",
        -9.65386333541358
      ],
      [
        "▁spent",
        -9.65647227235566
      ],
      [
        "▁foolish",
        -9.657567756628824
      ],
      [
        "▁cried",
        -9.659460110439552
      ],
      [
        "▁early",
        -9.659578925777078
      ],
      [
        "▁banishment",
        -9.660418801268039
      ],
      [
        "▁cure",
        -9.661069823717085
      ],
      [
        "▁fill",
        -9.661175427472209
      ],
      [
        "▁trouble",
        -9.661895313845152
      ],
      [
        "▁fond",
        -9.663726873674062
      ],
      [
        "▁respect",
        -9.664536107764679
      ],
      [
        "▁queen's",
        -9.665060078892598
      ],
      [
        "▁usurp",
        -9.665725392557245
      ],
      [
        "▁match",
        -9.670154176368769
      ],
      [
        "▁smile",
        -9.671865220327792
      ],
      [
        "▁moved",
        -9.671993741759017
      ],
      [
        "▁true,",
        -9.672386257030146
      ],
      [
        "▁scorn",
        -9.672932467150954
      ],
      [
        "▁stars",
        -9.673034839356152
      ],
      [
        "d.",
        -9.674845864964169
      ],
      [
        "▁bears",
        -9.675233433801829
      ],
      [
        "▁effect",
        -9.679504404537848
      ],
      [
        "▁winter",
        -9.681876458100867
      ],
      [
        "▁cast",
        -9.683518078798487
      ],
      [
        "▁burn",
        -9.685040891973795
      ],
      [
        "▁flower",
        -9.685275629079165
      ],
      [
        "▁Po",
        -9.686743577217511
      ],
      [
        "▁going",
        -9.687305072954356
      ],
      [
        "AB",
        -9.687681869105116
      ],
      [
        "▁tent",
        -9.688735229120063
      ],
      [
        "▁wretch",
        -9.68936475400841
      ],
      [
        "▁glory",
        -9.691632879350134
      ],
      [
        "▁fear,",
        -9.693299681834082
      ],
      [
        "▁teach",
        -9.694806352396554
      ],
      [
        "▁excuse",
        -9.695004059246251
      ],
      [
        "▁receive",
        -9.697529597619878
      ],
      [
        "▁depart",
        -9.700138227895613
      ],
      [
        "▁news,",
        -9.702625607095019
      ],
      [
        "▁view",
        -9.704494550192397
      ],
      [
        "▁envy",
        -9.70484584790143
      ],
      [
        "▁provost",
        -9.705070656412792
      ],
      [
        "▁Cominius",
        -9.705179186863912
      ],
      [
        "▁vengeance",
        -9.705266886357478
      ],
      [
        "▁Never",
        -9.705492397724147
      ],
      [
        "▁wherefore",
        -9.705492634635347
      ],
      [
        "▁Alack",
        -9.7055584980934
      ],
      [
        "▁Know",
        -9.705565882795298
      ],
      [
        "▁Harry",
        -9.705619604910407
      ],
      [
        "▁root",
        -9.70654815531684
      ],
      [
        "▁bright",
        -9.706577764643441
      ],
      [
        "▁malice",
        -9.706703645055736
      ],
      [
        "▁nine",
        -9.706752837892902
      ],
      [
        "▁Norfolk",
        -9.707185237220767
      ],
      [
        "▁Once",
        -9.708394582463747
      ],
      [
        "▁trial",
        -9.709415812013315
      ],
      [
        "▁kindness",
        -9.709701708164456
      ],
      [
        "▁bite",
        -9.709840041617225
      ],
      [
        "▁abroad",
        -9.709999666520364
      ],
      [
        "▁rid",
        -9.711433121621985
      ],
      [
        "▁obey",
        -9.711469678845635
      ],
      [
        "▁minister",
        -9.711883305609724
      ],
      [
        "▁wail",
        -9.711993226879612
      ],
      [
        "▁satisfied",
        -9.71230926165748
      ],
      [
        "▁died",
        -9.71598743080718
      ],
      [
        "▁Volsces",
        -9.716966826810244
      ],
      [
        "ring",
        -9.7190627312827
      ],
      [
        "▁thereof",
        -9.720614103693558
      ],
      [
        "▁Montague,",
        -9.721356845947696
      ],
      [
        "▁Bid",
        -9.721416769211071
      ],
      [
        "▁sigh",
        -9.721570240741725
      ],
      [
        "▁yea",
        -9.723189302597287
      ],
      [
        "▁brief",
        -9.723816904162614
      ],
      [
        "ave",
        -9.724035982121732
      ],
      [
        "▁reign",
        -9.725840479868538
      ],
      [
        "▁men's",
        -9.725905246939796
      ],
      [
        "▁liest",
        -9.726027050172057
      ],
      [
        "ting",
        -9.726732446603238
      ],
      [
        "▁dishonour",
        -9.728044504170239
      ],
      [
        "▁humour",
        -9.728651662224934
      ],
      [
        "▁her;",
        -9.72988350057831
      ],
      [
        "▁honours",
        -9.730923838166142
      ],
      [
        "AU",
        -9.731001333036605
      ],
      [
        "▁Fie",
        -9.73214397697887
      ],
      [
        "▁force",
        -9.732339976637343
      ],
      [
        "▁judgment",
        -9.73530235222759
      ],
      [
        "▁weary",
        -9.735698402915068
      ],
      [
        "▁faint",
        -9.736307256552688
      ],
      [
        "▁not;",
        -9.738702152298258
      ],
      [
        "▁truly",
        -9.73974189697483
      ],
      [
        "▁ho",
        -9.740153485365063
      ],
      [
        "▁vice",
        -9.74023319295637
      ],
      [
        "▁evil",
        -9.740421515717017
      ],
      [
        "▁walls",
        -9.74202045695024
      ],
      [
        "now",
        -9.742361085997796
      ],
      [
        "▁Again",
        -9.743988555016063
      ],
      [
        "▁honourable",
        -9.7449285414565
      ],
      [
        "▁Too",
        -9.745375823652228
      ],
      [
        "▁try",
        -9.74644835271697
      ],
      [
        "IST",
        -9.74722252919288
      ],
      [
        "▁sentence",
        -9.747256927817316
      ],
      [
        "▁alive",
        -9.750197355779486
      ],
      [
        "c",
        -9.750258648617962
      ],
      [
        "▁bride",
        -9.750692568185595
      ],
      [
        "aith,",
        -9.752226199986874
      ],
      [
        "▁place,",
        -9.753072023122638
      ],
      [
        "▁ladies",
        -9.753542447979036
      ],
      [
        "RO",
        -9.75408345618478
      ],
      [
        "▁boot",
        -9.754475386584005
      ],
      [
        "▁shed",
        -9.75537431268058
      ],
      [
        "▁steal",
        -9.757201564762891
      ],
      [
        "▁execution",
        -9.759906169121676
      ],
      [
        "▁quick",
        -9.761101433825365
      ],
      [
        "▁proceed",
        -9.761854535955548
      ],
      [
        "▁laugh",
        -9.761951198763402
      ],
      [
        "▁drunk",
        -9.762441416151368
      ],
      [
        "▁After",
        -9.76344924904173
      ],
      [
        "▁church",
        -9.76362416928868
      ],
      [
        "▁Thomas",
        -9.763636975226277
      ],
      [
        "▁Whilst",
        -9.763660572996235
      ],
      [
        "▁priest",
        -9.76369497512692
      ],
      [
        "▁Corioli",
        -9.76371723328203
      ],
      [
        "▁Peter",
        -9.76374468979529
      ],
      [
        "▁Rutland",
        -9.763764937722321
      ],
      [
        "▁occasion",
        -9.763863423446377
      ],
      [
        "▁Methinks",
        -9.763875838556075
      ],
      [
        "▁Please",
        -9.764119397864285
      ],
      [
        "▁tyrant",
        -9.764770759218624
      ],
      [
        "▁wench",
        -9.764986134760699
      ],
      [
        "▁alway",
        -9.765392108251312
      ],
      [
        "▁dull",
        -9.765429917097205
      ],
      [
        "▁blind",
        -9.765460436305979
      ],
      [
        "▁gown",
        -9.766140014419609
      ],
      [
        "▁wanton",
        -9.766865412082574
      ],
      [
        "▁wretched",
        -9.76743934946851
      ],
      [
        "▁corse",
        -9.768504686167596
      ],
      [
        "▁bless",
        -9.769680231506465
      ],
      [
        "▁guard",
        -9.770823215119528
      ],
      [
        "▁spake",
        -9.771567791266026
      ],
      [
        "▁form",
        -9.772950397810426
      ],
      [
        "▁fo",
        -9.773089093318019
      ],
      [
        "▁party",
        -9.77361610453853
      ],
      [
        "▁received",
        -9.77547888420736
      ],
      [
        "▁divine",
        -9.775681479597335
      ],
      [
        "▁vile",
        -9.776060872099617
      ],
      [
        "▁yet,",
        -9.776284153884422
      ],
      [
        "▁calls",
        -9.776378010777048
      ],
      [
        "▁mother's",
        -9.776926983009961
      ],
      [
        "▁Buckingham,",
        -9.779206488515552
      ],
      [
        "▁aid",
        -9.779312363536565
      ],
      [
        "▁Angelo,",
        -9.779574560046921
      ],
      [
        "▁mayst",
        -9.780803043739464
      ],
      [
        "▁True",
        -9.781222933638563
      ],
      [
        "▁changed",
        -9.78234974045276
      ],
      [
        "▁easy",
        -9.782439820846097
      ],
      [
        "▁girl",
        -9.784189628103743
      ],
      [
        "▁quite",
        -9.784196930849504
      ],
      [
        "▁fruit",
        -9.786547760219873
      ],
      [
        "er,",
        -9.788341036923295
      ],
      [
        "▁knave",
        -9.78883610171863
      ],
      [
        "▁triumph",
        -9.791370377878755
      ],
      [
        "▁thee!",
        -9.79248382576999
      ],
      [
        "▁son.",
        -9.793687830405297
      ],
      [
        "BO",
        -9.7941825495738
      ],
      [
        "▁lend",
        -9.795094788428951
      ],
      [
        "▁honesty",
        -9.795933444014953
      ],
      [
        "▁brow",
        -9.797274519989605
      ],
      [
        "thing",
        -9.79885550007192
      ],
      [
        "▁he,",
        -9.802435379158133
      ],
      [
        "▁plague",
        -9.803900010777902
      ],
      [
        "▁writ",
        -9.80400791778035
      ],
      [
        "▁shame,",
        -9.80775385586749
      ],
      [
        "thy",
        -9.80940400742696
      ],
      [
        "▁Prince",
        -9.811069489167366
      ],
      [
        "▁fain",
        -9.811811932003096
      ],
      [
        "ity",
        -9.813210000543766
      ],
      [
        "▁lady,",
        -9.813862683782041
      ],
      [
        "▁health",
        -9.814021759285037
      ],
      [
        "love,",
        -9.81524560417028
      ],
      [
        "ing.",
        -9.815334368957023
      ],
      [
        "▁nose",
        -9.815985741572446
      ],
      [
        "▁sing",
        -9.820260038984355
      ],
      [
        "▁spring",
        -9.822674312751323
      ],
      [
        "▁double",
        -9.82495646431906
      ],
      [
        "▁understand",
        -9.825025318979574
      ],
      [
        "▁dispatch",
        -9.825066522259105
      ],
      [
        "▁ghost",
        -9.825806521726781
      ],
      [
        "▁Caius",
        -9.82581196899426
      ],
      [
        "▁repent",
        -9.825921565932585
      ],
      [
        "▁choice",
        -9.825970356960523
      ],
      [
        "▁sirrah",
        -9.825979958145322
      ],
      [
        "▁THOMAS",
        -9.825987018036093
      ],
      [
        "▁Verona",
        -9.825994213565512
      ],
      [
        "▁wicked",
        -9.82599663697524
      ],
      [
        "▁Jove",
        -9.826004273379942
      ],
      [
        "▁silence",
        -9.826092316184955
      ],
      [
        "▁twice",
        -9.826098997314183
      ],
      [
        "▁Stanley",
        -9.826115596784216
      ],
      [
        "▁whilst",
        -9.826121251947274
      ],
      [
        "▁Mistress",
        -9.826160842345764
      ],
      [
        "▁Brother",
        -9.82630042792101
      ],
      [
        "▁To-morrow",
        -9.826373727299828
      ],
      [
        "▁remedy",
        -9.826392093545568
      ],
      [
        "▁safety",
        -9.826405747002005
      ],
      [
        "let",
        -9.82664162740954
      ],
      [
        "▁hollow",
        -9.826792510317173
      ],
      [
        "▁door",
        -9.828519101087592
      ],
      [
        "▁Death",
        -9.82915566842469
      ],
      [
        "▁thrive",
        -9.829688219632606
      ],
      [
        "▁dust",
        -9.830374343888602
      ],
      [
        "▁Love",
        -9.830590455438399
      ],
      [
        "▁blest",
        -9.831168534600932
      ],
      [
        "▁rude",
        -9.832390220338677
      ],
      [
        "▁Besides",
        -9.832695737805532
      ],
      [
        "▁simple",
        -9.833208321001523
      ],
      [
        "▁buried",
        -9.833817128470498
      ],
      [
        "ose",
        -9.835167560884248
      ],
      [
        "▁touch'd",
        -9.836427799221697
      ],
      [
        "uch",
        -9.836607138299064
      ],
      [
        "▁Friar",
        -9.836892789705225
      ],
      [
        "▁hap",
        -9.837704056196547
      ],
      [
        "▁master's",
        -9.840008522159032
      ],
      [
        "and,",
        -9.841176613217378
      ],
      [
        "▁wild",
        -9.842241853527147
      ],
      [
        "▁meat",
        -9.842894206593602
      ],
      [
        "▁seal",
        -9.844555648104038
      ],
      [
        "▁hi",
        -9.845088244085652
      ],
      [
        "▁tune",
        -9.845851181712192
      ],
      [
        "xt",
        -9.851710757620184
      ],
      [
        "▁hair",
        -9.851754595925902
      ],
      [
        "own",
        -9.853721431244347
      ],
      [
        "▁custom",
        -9.855298379757194
      ],
      [
        "▁cheek",
        -9.855566854220802
      ],
      [
        "▁swords",
        -9.856173730022352
      ],
      [
        "▁brows",
        -9.856876556063678
      ],
      [
        "▁fell",
        -9.857289548108328
      ],
      [
        "▁sign",
        -9.85753805383504
      ],
      [
        "▁lest",
        -9.859092259739342
      ],
      [
        "▁countenance",
        -9.860279310913594
      ],
      [
        "▁husband,",
        -9.860302193207698
      ],
      [
        "▁demand",
        -9.860473935861197
      ],
      [
        "▁Tut",
        -9.860541197122824
      ],
      [
        "▁masters",
        -9.861671097139741
      ],
      [
        "nder",
        -9.86389504168849
      ],
      [
        "▁VA",
        -9.864893912048904
      ],
      [
        "▁pains",
        -9.867601797583745
      ],
      [
        "CA",
        -9.869101374542053
      ],
      [
        "▁therein",
        -9.869403132356892
      ],
      [
        "▁marry,",
        -9.870522934248235
      ],
      [
        "▁rock",
        -9.870921598463685
      ],
      [
        "▁thinks",
        -9.870966430128643
      ],
      [
        "▁add",
        -9.871278210444597
      ],
      [
        "▁per",
        -9.87279661729361
      ],
      [
        "▁deserve",
        -9.873248946277812
      ],
      [
        "▁wall",
        -9.873661808125453
      ],
      [
        "▁deputy",
        -9.877294567039323
      ],
      [
        "you",
        -9.877452821454574
      ],
      [
        "▁prayer",
        -9.877775171423853
      ],
      [
        "ance",
        -9.878274884746371
      ],
      [
        "k",
        -9.879076972750415
      ],
      [
        "▁brothers",
        -9.880745334495911
      ],
      [
        "▁Yet,",
        -9.881734900322906
      ],
      [
        "OW",
        -9.884378283630468
      ],
      [
        "▁drop",
        -9.884507756599461
      ],
      [
        "▁lord:",
        -9.884656415190882
      ],
      [
        "▁sister,",
        -9.889575499272274
      ],
      [
        "▁former",
        -9.89016553481821
      ],
      [
        "▁private",
        -9.890452125849926
      ],
      [
        "▁renown",
        -9.892398596519717
      ],
      [
        "▁garden",
        -9.892474981011265
      ],
      [
        "▁rotten",
        -9.8924751098498
      ],
      [
        "▁Apollo",
        -9.892490572500586
      ],
      [
        "▁oracle",
        -9.89249450041866
      ],
      [
        "▁Cousin",
        -9.892509727226464
      ],
      [
        "▁despite",
        -9.892570263134546
      ],
      [
        "▁absence",
        -9.892606097170116
      ],
      [
        "▁Capitol",
        -9.892618365734037
      ],
      [
        "▁Indeed",
        -9.892623898385878
      ],
      [
        "▁Prithee",
        -9.892699927100292
      ],
      [
        "▁practise",
        -9.89271499050891
      ],
      [
        "▁Musician",
        -9.892716825692702
      ],
      [
        "▁Menenius",
        -9.892717929797223
      ],
      [
        "▁Somerset",
        -9.892718896371901
      ],
      [
        "▁Christian",
        -9.892802406076271
      ],
      [
        "▁Barnardine",
        -9.892862942154744
      ],
      [
        "▁Show",
        -9.892984906123592
      ],
      [
        "▁ignorant",
        -9.893102346338319
      ],
      [
        "▁Myself",
        -9.893291947466336
      ],
      [
        "▁benefit",
        -9.893336031073968
      ],
      [
        "▁Turn",
        -9.89336096383077
      ],
      [
        "▁violent",
        -9.893373646369959
      ],
      [
        "▁enforce",
        -9.893379666350144
      ],
      [
        "▁taste",
        -9.893415625466465
      ],
      [
        "▁adieu",
        -9.893866045881559
      ],
      [
        "▁dreadful",
        -9.894423216647759
      ],
      [
        "▁sport",
        -9.895562176919732
      ],
      [
        "▁Le",
        -9.89584998946781
      ],
      [
        "ever",
        -9.89601942188441
      ],
      [
        "▁fury",
        -9.896727152734883
      ],
      [
        "▁hurt",
        -9.897173229039307
      ],
      [
        "ESS",
        -9.897626519893116
      ],
      [
        "▁castle",
        -9.897652143680045
      ],
      [
        "▁clear",
        -9.897697538311684
      ],
      [
        "ERB",
        -9.897699323133141
      ],
      [
        "▁mar",
        -9.898007315150313
      ],
      [
        "▁motion",
        -9.898481186102831
      ],
      [
        "▁fiery",
        -9.898503502439134
      ],
      [
        "▁broken",
        -9.898765130721022
      ],
      [
        "▁weeds",
        -9.899659265642109
      ],
      [
        "▁prize",
        -9.900024502408616
      ],
      [
        "▁deceived",
        -9.90053637141981
      ],
      [
        "▁advantage",
        -9.901974435558058
      ],
      [
        "▁he'l",
        -9.902090588549616
      ],
      [
        "▁belly",
        -9.903315189449797
      ],
      [
        "▁vantage",
        -9.904325594425632
      ],
      [
        "▁bark",
        -9.904394372020356
      ],
      [
        "▁wings",
        -9.905099142722865
      ],
      [
        "▁firm",
        -9.906092255421596
      ],
      [
        "▁convey",
        -9.906160131080934
      ],
      [
        "▁fares",
        -9.906343768649037
      ],
      [
        "▁bend",
        -9.906665341574678
      ],
      [
        "▁drawn",
        -9.90748361405616
      ],
      [
        "▁for't",
        -9.90864673102243
      ],
      [
        "▁dreams",
        -9.909225796099907
      ],
      [
        "▁hanging",
        -9.911243528908118
      ],
      [
        "▁others",
        -9.911535678860705
      ],
      [
        ",'",
        -9.911563526915165
      ],
      [
        "▁anger",
        -9.913459915552338
      ],
      [
        "▁traitors",
        -9.913482421632471
      ],
      [
        "▁death!",
        -9.915156690542412
      ],
      [
        "▁Wherein",
        -9.917245803382235
      ],
      [
        "▁taken",
        -9.91780341122164
      ],
      [
        "▁sea,",
        -9.917950820388123
      ],
      [
        "▁wherein",
        -9.918827717620479
      ],
      [
        "▁wrongs",
        -9.91925685377869
      ],
      [
        "ought",
        -9.919866535768554
      ],
      [
        "▁tongues",
        -9.92004644837653
      ],
      [
        "▁reasons",
        -9.92159712407588
      ],
      [
        "▁sacr",
        -9.922397403486343
      ],
      [
        "▁Mantua",
        -9.923545620897094
      ],
      [
        "▁went",
        -9.923833468955165
      ],
      [
        "▁ship",
        -9.924239833941584
      ],
      [
        "▁trumpets",
        -9.924255208992655
      ],
      [
        "▁thunder",
        -9.924866185896644
      ],
      [
        "t,",
        -9.927675570498806
      ],
      [
        "▁utter",
        -9.927679264721263
      ],
      [
        "▁awake",
        -9.92869069867031
      ],
      [
        "▁condition",
        -9.928968150761355
      ],
      [
        "▁tame",
        -9.930028237135561
      ],
      [
        "▁finger",
        -9.93116773311374
      ],
      [
        "man",
        -9.931251734483183
      ],
      [
        "▁meaning",
        -9.933119943618557
      ],
      [
        "with",
        -9.93398079285583
      ],
      [
        "▁stones",
        -9.935721096406017
      ],
      [
        "▁affection",
        -9.936285580626729
      ],
      [
        "RSE",
        -9.937089980915065
      ],
      [
        "▁fa",
        -9.93848174108355
      ],
      [
        "▁babe",
        -9.938933741138996
      ],
      [
        "▁lamb",
        -9.939593387579137
      ],
      [
        "yond",
        -9.939695587795889
      ],
      [
        "most",
        -9.939983366347949
      ],
      [
        "▁shore",
        -9.94034137147871
      ],
      [
        "▁becomes",
        -9.940423019689055
      ],
      [
        "▁commend",
        -9.940555426557951
      ],
      [
        "▁throat",
        -9.941757987607248
      ],
      [
        "▁leaves",
        -9.941818265758135
      ],
      [
        "▁number",
        -9.945260689954434
      ],
      [
        "▁sits",
        -9.946602794766967
      ],
      [
        "what",
        -9.946931527765113
      ],
      [
        "▁corn",
        -9.947034282963306
      ],
      [
        "▁plant",
        -9.947430726197311
      ],
      [
        "▁foes",
        -9.949821285730307
      ],
      [
        "▁devise",
        -9.950578936323522
      ],
      [
        "▁storm",
        -9.950900528194985
      ],
      [
        "your",
        -9.951025839197415
      ],
      [
        "▁daughter.",
        -9.951767244357775
      ],
      [
        "▁forbid",
        -9.952297627859345
      ],
      [
        "▁Vincentio",
        -9.952596225409092
      ],
      [
        "▁accuse",
        -9.954279047974973
      ],
      [
        "which",
        -9.954367584361957
      ],
      [
        "here",
        -9.955303182755365
      ],
      [
        "▁fat",
        -9.956499034299654
      ],
      [
        "▁dread",
        -9.957023441278931
      ],
      [
        "▁prepare",
        -9.957134046362581
      ],
      [
        "▁success",
        -9.95737543194869
      ],
      [
        "▁cares",
        -9.957644002551497
      ],
      [
        "LAR",
        -9.95765562012024
      ],
      [
        "▁ex",
        -9.960994527217341
      ],
      [
        "▁advise",
        -9.961107329803763
      ],
      [
        "▁GA",
        -9.962382859582664
      ],
      [
        "▁proclaim",
        -9.96314098156536
      ],
      [
        "▁RICH",
        -9.963382024109716
      ],
      [
        "▁wa",
        -9.963590225798546
      ],
      [
        "▁gross",
        -9.963627494677704
      ],
      [
        "▁Pisa",
        -9.963731737819936
      ],
      [
        "▁resign",
        -9.963753835642589
      ],
      [
        "▁damned",
        -9.96376885348279
      ],
      [
        "▁Rivers",
        -9.96377410080084
      ],
      [
        "▁Great",
        -9.963805388030142
      ],
      [
        "▁envious",
        -9.963877535644631
      ],
      [
        "▁several",
        -9.96388306644875
      ],
      [
        "▁burthen",
        -9.963911344715143
      ],
      [
        "▁tidings",
        -9.963937929345231
      ],
      [
        "▁tedious",
        -9.963959729603273
      ],
      [
        "▁Thursday",
        -9.963963793916662
      ],
      [
        "▁Hermione",
        -9.963964148429376
      ],
      [
        "▁woful",
        -9.96423026855555
      ],
      [
        "▁authority",
        -9.964438282776875
      ],
      [
        "▁banish",
        -9.964497036389204
      ],
      [
        "▁green",
        -9.964589564950014
      ],
      [
        "▁thrust",
        -9.964617109625234
      ],
      [
        "▁undone",
        -9.964639557401902
      ],
      [
        "▁threaten",
        -9.964680280186148
      ],
      [
        "▁peril",
        -9.964916220940538
      ],
      [
        "▁outward",
        -9.965110752002946
      ],
      [
        "▁asleep",
        -9.965377740518683
      ],
      [
        "▁express",
        -9.965630599529803
      ],
      [
        "▁cries",
        -9.965646319548553
      ],
      [
        "ch",
        -9.96574565247648
      ],
      [
        "▁big",
        -9.965949979754015
      ],
      [
        "▁farther",
        -9.96668655635289
      ],
      [
        "▁carry",
        -9.966809215607347
      ],
      [
        "▁followers",
        -9.967726777042284
      ],
      [
        "▁Grey",
        -9.967839152802659
      ],
      [
        "▁mistake",
        -9.967841724662746
      ],
      [
        "▁part,",
        -9.968590574159984
      ],
      [
        "▁whole",
        -9.968708770196624
      ],
      [
        "▁garments",
        -9.96929926800449
      ],
      [
        "▁affairs",
        -9.969351205922164
      ],
      [
        "▁wives",
        -9.969797704160513
      ],
      [
        "▁quit",
        -9.972002214389605
      ],
      [
        "▁deposed",
        -9.972834768870857
      ],
      [
        "▁chief",
        -9.972916354503079
      ],
      [
        "▁cell",
        -9.973843200359912
      ],
      [
        "▁wander",
        -9.975601941339155
      ],
      [
        "ar",
        -9.976027217372227
      ],
      [
        "▁north",
        -9.977014321777723
      ],
      [
        "▁stain",
        -9.977375297757192
      ],
      [
        "▁prepared",
        -9.97793290525811
      ],
      [
        "▁Hast",
        -9.979062372061644
      ],
      [
        "▁possible",
        -9.979306744099922
      ],
      [
        "▁hunt",
        -9.981480184443958
      ],
      [
        "▁colour",
        -9.98493925309953
      ],
      [
        "▁Into",
        -9.986188656834122
      ],
      [
        "ed.",
        -9.98633098157146
      ],
      [
        "day",
        -9.988515166960655
      ],
      [
        "▁neighbour",
        -9.989756112858974
      ],
      [
        "▁intend",
        -9.990289198995692
      ],
      [
        "aught",
        -9.99042455525429
      ],
      [
        "▁due",
        -9.990876473598743
      ],
      [
        "▁claim",
        -9.99239732729021
      ],
      [
        "▁peace!",
        -9.993477936626212
      ],
      [
        "hood",
        -9.995211073092245
      ],
      [
        "▁wont",
        -9.996011960972993
      ],
      [
        "▁Hence",
        -10.002290610462518
      ],
      [
        "▁begins",
        -10.002444592227024
      ],
      [
        "▁pair",
        -10.003228326415359
      ],
      [
        "▁show'd",
        -10.004424018216739
      ],
      [
        "▁fellows",
        -10.005923378411849
      ],
      [
        "▁innocent",
        -10.006928900847262
      ],
      [
        "▁perfect",
        -10.007992949688322
      ],
      [
        "▁knight",
        -10.009387816246981
      ],
      [
        "▁agree",
        -10.009614638215346
      ],
      [
        "▁wound",
        -10.009619677161147
      ],
      [
        "▁guest",
        -10.010461263012207
      ],
      [
        "▁beast",
        -10.011018713536707
      ],
      [
        "▁alas",
        -10.011709830825502
      ],
      [
        "▁enjoy",
        -10.011984185845481
      ],
      [
        "cond",
        -10.012214529218046
      ],
      [
        "▁eat",
        -10.013030177284193
      ],
      [
        "▁maids",
        -10.013129939498086
      ],
      [
        "▁fellow,",
        -10.013424808185267
      ],
      [
        "▁drum",
        -10.013562912973331
      ],
      [
        "▁chide",
        -10.014175632823765
      ],
      [
        "▁owe",
        -10.014569525182239
      ],
      [
        "▁borne",
        -10.015224031890273
      ],
      [
        "▁Ver",
        -10.015613432295128
      ],
      [
        "▁humbl",
        -10.01569206894321
      ],
      [
        "▁Mark",
        -10.01693288559431
      ],
      [
        "▁god",
        -10.017571185475376
      ],
      [
        "her.",
        -10.018372239135537
      ],
      [
        "▁shadow",
        -10.019333084743085
      ],
      [
        "▁lip",
        -10.019923527381582
      ],
      [
        "▁last,",
        -10.020591282240812
      ],
      [
        "ted",
        -10.020968395705328
      ],
      [
        "-like",
        -10.021808912809124
      ],
      [
        "▁gain",
        -10.02465715735449
      ],
      [
        "▁proof",
        -10.028938735042066
      ],
      [
        "rt",
        -10.029477382099905
      ],
      [
        "▁pleased",
        -10.0295144193624
      ],
      [
        "▁endure",
        -10.029993970593214
      ],
      [
        "▁sighs",
        -10.03060840891983
      ],
      [
        "▁plot",
        -10.03079458922933
      ],
      [
        "▁Ay",
        -10.030831470324184
      ],
      [
        "▁exile",
        -10.032095877381952
      ],
      [
        "▁continue",
        -10.03306978231426
      ],
      [
        "▁used",
        -10.033365853994704
      ],
      [
        "▁tread",
        -10.033636137759089
      ],
      [
        "▁resolve",
        -10.033979011803472
      ],
      [
        "▁plead",
        -10.034329639075466
      ],
      [
        "we",
        -10.036040428530644
      ],
      [
        "▁al",
        -10.03689519715267
      ],
      [
        "ry",
        -10.037021709235967
      ],
      [
        "ve",
        -10.037085466915219
      ],
      [
        "▁saint",
        -10.03926693353079
      ],
      [
        "mely",
        -10.039814298196191
      ],
      [
        "▁ruin",
        -10.040090168246017
      ],
      [
        "▁Help",
        -10.04009340604617
      ],
      [
        "▁paper",
        -10.040289736106695
      ],
      [
        "▁Tailor",
        -10.040464307928254
      ],
      [
        "▁chair",
        -10.040506085368042
      ],
      [
        "▁terror",
        -10.040534366191359
      ],
      [
        "▁disdain",
        -10.040541726441534
      ],
      [
        "▁empty",
        -10.040547483975715
      ],
      [
        "▁protest",
        -10.040579339864617
      ],
      [
        "▁palace",
        -10.040580794110689
      ],
      [
        "▁Believe",
        -10.040603302214775
      ],
      [
        "▁opinion",
        -10.040649634603122
      ],
      [
        "▁cunning",
        -10.040673115325488
      ],
      [
        "▁language",
        -10.040673817965503
      ],
      [
        "▁affect",
        -10.040677589684064
      ],
      [
        "▁twelve",
        -10.040688381091629
      ],
      [
        "▁wrath",
        -10.040696892213681
      ],
      [
        "▁pleasant",
        -10.040699877932857
      ],
      [
        "▁drown",
        -10.040747319462184
      ],
      [
        "▁Biondello",
        -10.040762032026272
      ],
      [
        "▁Bona",
        -10.040778196294394
      ],
      [
        "▁unnatural",
        -10.040790220071274
      ],
      [
        "▁remembrance",
        -10.040872504803364
      ],
      [
        "▁spend",
        -10.040895715400675
      ],
      [
        "▁denied",
        -10.04092226932286
      ],
      [
        "▁flight",
        -10.040967253369079
      ],
      [
        "▁beheld",
        -10.041296486728237
      ],
      [
        "▁undertake",
        -10.041464349573335
      ],
      [
        "▁contrary",
        -10.041636783031125
      ],
      [
        "▁delay",
        -10.041915270048289
      ],
      [
        "▁slaughter'd",
        -10.041981551696809
      ],
      [
        "▁Three",
        -10.042096679873435
      ],
      [
        "▁deal",
        -10.042600093696322
      ],
      [
        "▁miserable",
        -10.04262339672852
      ],
      [
        "▁senate",
        -10.042762039538395
      ],
      [
        "▁courtesy",
        -10.043071894542146
      ],
      [
        "▁forsworn",
        -10.04325808225225
      ],
      [
        "▁question",
        -10.04360338750513
      ],
      [
        "▁sorry",
        -10.044650581306309
      ],
      [
        "▁shape",
        -10.04494834194094
      ],
      [
        "▁single",
        -10.044986355858986
      ],
      [
        "▁glass",
        -10.04531753639673
      ],
      [
        "▁access",
        -10.045866339847434
      ],
      [
        "▁Worth",
        -10.046535872643224
      ],
      [
        "▁king!",
        -10.04723021253083
      ],
      [
        "▁whither",
        -10.047571773141097
      ],
      [
        "▁gage",
        -10.047722689663654
      ],
      [
        "▁follows",
        -10.048033535827326
      ],
      [
        "▁troth",
        -10.048749143693366
      ],
      [
        "▁goodness",
        -10.04922032158625
      ],
      [
        "▁brook",
        -10.04953074240759
      ],
      [
        "▁quench",
        -10.049580091958557
      ],
      [
        "▁natural",
        -10.04963337949139
      ],
      [
        "▁legs",
        -10.0498245749651
      ],
      [
        "come.",
        -10.050135623099248
      ],
      [
        "her,",
        -10.05013976883906
      ],
      [
        "▁dinner",
        -10.05046782755058
      ],
      [
        "▁joyful",
        -10.051211785616532
      ],
      [
        "▁contract",
        -10.051562337766788
      ],
      [
        "▁spare",
        -10.051940135603141
      ],
      [
        "▁gentlewoman",
        -10.05209541065716
      ],
      [
        "▁shut",
        -10.053120708122748
      ],
      [
        "ent",
        -10.054644748650288
      ],
      [
        "▁whe",
        -10.055654605315912
      ],
      [
        "▁Still",
        -10.055854549123973
      ],
      [
        "▁proper",
        -10.056402002731557
      ],
      [
        "▁curst",
        -10.056432395340307
      ],
      [
        "▁Romeo's",
        -10.057029521595524
      ],
      [
        "▁kingly",
        -10.05740379770533
      ],
      [
        "▁resolved",
        -10.057982668903199
      ],
      [
        "▁room",
        -10.05848366250573
      ],
      [
        "▁silver",
        -10.059183304340905
      ],
      [
        "▁woman,",
        -10.059379428783885
      ],
      [
        "think",
        -10.06000802261151
      ],
      [
        "▁'I",
        -10.061346717516594
      ],
      [
        "▁hear,",
        -10.062406327240481
      ],
      [
        "ic",
        -10.062536171390146
      ],
      [
        "▁deliver'd",
        -10.06265856863135
      ],
      [
        "▁Warwick's",
        -10.064434313972473
      ],
      [
        "same",
        -10.065736641171025
      ],
      [
        "ious",
        -10.066032497264674
      ],
      [
        "▁belike",
        -10.066810138225488
      ],
      [
        "▁merit",
        -10.066911556162868
      ],
      [
        "▁wait",
        -10.067160051820121
      ],
      [
        "!--",
        -10.068637953015495
      ],
      [
        "▁Boy",
        -10.070681261972195
      ],
      [
        "▁fame",
        -10.07272265690962
      ],
      [
        "▁limit",
        -10.073833885161461
      ],
      [
        "▁prey",
        -10.07385676920955
      ],
      [
        "▁round",
        -10.074812317908709
      ],
      [
        "ice",
        -10.076684632621806
      ],
      [
        "▁birth",
        -10.077356435226722
      ],
      [
        "bout",
        -10.077826181566754
      ],
      [
        "▁embrace",
        -10.080904266474132
      ],
      [
        "▁guilt",
        -10.081059358789952
      ],
      [
        "▁slow",
        -10.08154087070599
      ],
      [
        "ary",
        -10.082402160199788
      ],
      [
        "▁de",
        -10.083562715413134
      ],
      [
        "▁intent",
        -10.083752937530171
      ],
      [
        "▁spite",
        -10.0877080466472
      ],
      [
        "▁disposition",
        -10.089741517735003
      ],
      [
        "▁fools",
        -10.090002118968298
      ],
      [
        "▁out,",
        -10.093054290725288
      ],
      [
        "▁her!",
        -10.093090708307017
      ],
      [
        "▁purpose.",
        -10.09350432608749
      ],
      [
        "▁dew",
        -10.096311426804576
      ],
      [
        "not,",
        -10.098896067234833
      ],
      [
        "▁gate",
        -10.100276072115534
      ],
      [
        "▁rare",
        -10.100940560321764
      ],
      [
        "more",
        -10.101374457628527
      ],
      [
        "▁table",
        -10.101965324052491
      ],
      [
        "▁gives",
        -10.10238452612316
      ],
      [
        "▁fail",
        -10.103447384028676
      ],
      [
        "▁lament",
        -10.10796532935486
      ],
      [
        "▁justice,",
        -10.108009132504332
      ],
      [
        "▁instrument",
        -10.108166258844111
      ],
      [
        "▁sometime",
        -10.108364626461494
      ],
      [
        "▁f",
        -10.109478655330133
      ],
      [
        "▁Has",
        -10.109819608802662
      ],
      [
        "▁frame",
        -10.112321105586473
      ],
      [
        "▁Lo",
        -10.114256830639436
      ],
      [
        "▁hit",
        -10.115886757196591
      ],
      [
        "▁rule",
        -10.116551859641797
      ],
      [
        "▁instruct",
        -10.1173681453847
      ],
      [
        "▁Lords",
        -10.118282655210379
      ],
      [
        "▁seize",
        -10.118548188843347
      ],
      [
        "hose",
        -10.121298973828498
      ],
      [
        "▁lo",
        -10.121981122429933
      ],
      [
        "▁perform",
        -10.122257429241888
      ],
      [
        "▁greet",
        -10.122674833406458
      ],
      [
        "▁spur",
        -10.12294717735175
      ],
      [
        "een",
        -10.123092215701012
      ],
      [
        "▁naked",
        -10.123420152802641
      ],
      [
        "▁ARCH",
        -10.123541445363102
      ],
      [
        "▁dagger",
        -10.123573072418699
      ],
      [
        "▁French",
        -10.123655221676113
      ],
      [
        "▁Marshal",
        -10.123701496795686
      ],
      [
        "▁o'clock",
        -10.123704044652609
      ],
      [
        "▁bodies",
        -10.123711884089015
      ],
      [
        "▁smooth",
        -10.123713139299664
      ],
      [
        "▁dukedom",
        -10.12372373621331
      ],
      [
        "▁attempt",
        -10.123732904533647
      ],
      [
        "▁repair",
        -10.123762393892001
      ],
      [
        "▁hatred",
        -10.12380607128351
      ],
      [
        "▁assurance",
        -10.123863093358768
      ],
      [
        "▁government",
        -10.123942758510173
      ],
      [
        "▁counterfeit",
        -10.123972347231852
      ],
      [
        "▁excellent",
        -10.124017603867406
      ],
      [
        "▁calm",
        -10.124086279373786
      ],
      [
        "▁sceptre",
        -10.124097593660906
      ],
      [
        "▁misery",
        -10.124100263281663
      ],
      [
        "▁hereafter",
        -10.124179899651185
      ],
      [
        "▁protector",
        -10.124193062063096
      ],
      [
        "▁Father",
        -10.124354768063384
      ],
      [
        "▁needful",
        -10.124844203412168
      ],
      [
        "▁Right",
        -10.125259850145454
      ],
      [
        "▁stoop",
        -10.12541074753654
      ],
      [
        "▁happiness",
        -10.12546499229553
      ],
      [
        "▁spoil",
        -10.125501665611893
      ],
      [
        "▁debt",
        -10.125721070950064
      ],
      [
        "▁study",
        -10.12593912123183
      ],
      [
        "▁obedience",
        -10.126482456755944
      ],
      [
        "▁apparel",
        -10.126562661585885
      ],
      [
        "▁senators",
        -10.12689911202419
      ],
      [
        "▁g",
        -10.12718251425342
      ],
      [
        "▁folly",
        -10.127221725258856
      ],
      [
        "▁tomb",
        -10.127413460446792
      ],
      [
        "▁think'st",
        -10.12747663028053
      ],
      [
        "▁shortly",
        -10.127563816875536
      ],
      [
        "▁wither'd",
        -10.12759078889345
      ],
      [
        "▁passion",
        -10.127802372217424
      ],
      [
        "▁discontent",
        -10.128040953309442
      ],
      [
        "▁Only",
        -10.128949313673056
      ],
      [
        "▁armour",
        -10.129500049852233
      ],
      [
        "▁Bear",
        -10.129587066204822
      ],
      [
        "▁crown'd",
        -10.130039899470518
      ],
      [
        "▁Two",
        -10.13005443469847
      ],
      [
        "▁large",
        -10.130418194225271
      ],
      [
        "▁story",
        -10.131716049216491
      ],
      [
        "▁commanded",
        -10.132666504010547
      ],
      [
        "▁wrong'd",
        -10.134130259578855
      ],
      [
        "▁beloved",
        -10.135192937630944
      ],
      [
        "▁Capulet",
        -10.135460209269965
      ],
      [
        "▁offend",
        -10.135602935331317
      ],
      [
        "▁dam",
        -10.135937622261633
      ],
      [
        "▁gaze",
        -10.136320258567904
      ],
      [
        "ly.",
        -10.136347742839053
      ],
      [
        "▁Unti",
        -10.136831712461694
      ],
      [
        "▁Beseech",
        -10.137150812581847
      ],
      [
        "▁pronounce",
        -10.137322787714535
      ],
      [
        "▁sway",
        -10.137638238664337
      ],
      [
        "▁yonder",
        -10.137692497054095
      ],
      [
        "▁wounded",
        -10.137936138527671
      ],
      [
        "use",
        -10.138458150846844
      ],
      [
        "▁keeps",
        -10.138876471550297
      ],
      [
        "▁pass'd",
        -10.139627189749984
      ],
      [
        "no",
        -10.139783187524298
      ],
      [
        "▁rogue",
        -10.139986601583454
      ],
      [
        "rought",
        -10.140039810383952
      ],
      [
        "▁join",
        -10.140219680128064
      ],
      [
        "▁called",
        -10.140449451419205
      ],
      [
        "▁fairly",
        -10.14060780011667
      ],
      [
        "t.",
        -10.141437688077438
      ],
      [
        "ng",
        -10.141514101425567
      ],
      [
        "▁sometimes",
        -10.142176481476145
      ],
      [
        "ERL",
        -10.143144513426549
      ],
      [
        "▁spirits",
        -10.143413261297129
      ],
      [
        "▁spoken",
        -10.143916350410162
      ],
      [
        "▁colours",
        -10.145594188305035
      ],
      [
        "▁approach",
        -10.146844838158692
      ],
      [
        "h,",
        -10.147060661121614
      ],
      [
        "▁courage",
        -10.14739560562931
      ],
      [
        "nt",
        -10.14886354616486
      ],
      [
        "▁None",
        -10.149139260178615
      ],
      [
        "have",
        -10.151408092856919
      ],
      [
        "▁You'l",
        -10.152381792943281
      ],
      [
        "▁sink",
        -10.156166200188894
      ],
      [
        "RU",
        -10.15623117156011
      ],
      [
        "▁Alas",
        -10.158555064276626
      ],
      [
        "HOR",
        -10.160090487118378
      ],
      [
        "▁Am",
        -10.161822754467314
      ],
      [
        "▁sp",
        -10.162242038673156
      ],
      [
        "▁se",
        -10.162861483790483
      ],
      [
        "▁torment",
        -10.165224533751962
      ],
      [
        "▁bastard",
        -10.166982511543665
      ],
      [
        "▁stabb",
        -10.167279126418029
      ],
      [
        "take",
        -10.169313546828205
      ],
      [
        "▁seest",
        -10.169986583299993
      ],
      [
        "-heart",
        -10.170612450018433
      ],
      [
        "bids",
        -10.17113898483467
      ],
      [
        "▁dares",
        -10.171744080490294
      ],
      [
        "▁list",
        -10.172157988535254
      ],
      [
        "AD",
        -10.174486930057961
      ],
      [
        "▁note",
        -10.1749294256965
      ],
      [
        "▁hark",
        -10.175369151950008
      ],
      [
        "▁dwell",
        -10.17548318805091
      ],
      [
        "thou",
        -10.176565192808308
      ],
      [
        "▁ease",
        -10.177924032326896
      ],
      [
        "s'",
        -10.178280028677426
      ],
      [
        "OM",
        -10.179542206104522
      ],
      [
        "▁con",
        -10.180017090915516
      ],
      [
        "▁passage",
        -10.180618855075563
      ],
      [
        "▁delight",
        -10.181434528828266
      ],
      [
        "fold",
        -10.182097417416323
      ],
      [
        "e?",
        -10.1822762550275
      ],
      [
        "▁Hav",
        -10.182809468095458
      ],
      [
        "▁murderer",
        -10.183747743330022
      ],
      [
        "▁cur",
        -10.187447925094894
      ],
      [
        "▁whiles",
        -10.191527129715336
      ],
      [
        "▁Al",
        -10.19156116373583
      ],
      [
        "▁degree",
        -10.191685216194404
      ],
      [
        "▁butcher",
        -10.193043592240898
      ],
      [
        "▁remains",
        -10.193141543145792
      ],
      [
        "▁seeing",
        -10.194022673051057
      ],
      [
        "▁praise",
        -10.194096710167058
      ],
      [
        "▁discover",
        -10.195112662804636
      ],
      [
        "▁up.",
        -10.195437261993705
      ],
      [
        "teen",
        -10.19656731406204
      ],
      [
        "▁griev",
        -10.196805612145152
      ],
      [
        "▁Volsce",
        -10.196853606645883
      ],
      [
        "so",
        -10.197003089537473
      ],
      [
        "▁trick",
        -10.197994209890602
      ],
      [
        "▁particular",
        -10.199037584784442
      ],
      [
        "▁credit",
        -10.199255811199123
      ],
      [
        "▁amen",
        -10.199817003399811
      ],
      [
        "▁loath",
        -10.20051338632506
      ],
      [
        "AT",
        -10.201874106878217
      ],
      [
        "▁write",
        -10.202055747888624
      ],
      [
        "▁Ye",
        -10.203003688816244
      ],
      [
        "▁odd",
        -10.203664108414898
      ],
      [
        "s't",
        -10.203824326482138
      ],
      [
        "▁anon",
        -10.204032548025666
      ],
      [
        "▁month",
        -10.204223554328385
      ],
      [
        "▁turns",
        -10.204328059710129
      ],
      [
        "▁hopes",
        -10.205111506988592
      ],
      [
        "▁services",
        -10.205444129846246
      ],
      [
        "on.",
        -10.20564877326533
      ],
      [
        "▁trade",
        -10.206041052049752
      ],
      [
        "▁Co",
        -10.206997822391514
      ],
      [
        "▁teeth",
        -10.207131229166839
      ],
      [
        "▁blush",
        -10.207249815086717
      ],
      [
        "▁consider",
        -10.208100967165027
      ],
      [
        "▁pure",
        -10.208525854667705
      ],
      [
        "▁mourn",
        -10.20974725371224
      ],
      [
        "▁boar",
        -10.210727878565859
      ],
      [
        "ate",
        -10.21094315945243
      ],
      [
        "zen",
        -10.211051143745227
      ],
      [
        "ive",
        -10.211062524913427
      ],
      [
        "adventure",
        -10.211717528567384
      ],
      [
        "▁wreck",
        -10.211960736731289
      ],
      [
        "▁waters",
        -10.212221212747787
      ],
      [
        "▁mild",
        -10.212670455237511
      ],
      [
        "▁perish",
        -10.212705626323734
      ],
      [
        "▁wine",
        -10.212719711485848
      ],
      [
        "▁lark",
        -10.213851877834315
      ],
      [
        "ach",
        -10.213878741937936
      ],
      [
        "▁Draw",
        -10.213939125929608
      ],
      [
        "▁Lucio",
        -10.214075682067719
      ],
      [
        "▁realm",
        -10.214086122313491
      ],
      [
        "▁scope",
        -10.214087461978146
      ],
      [
        "▁vault",
        -10.214088766656308
      ],
      [
        "▁slept",
        -10.214092057964235
      ],
      [
        "▁venom",
        -10.214106022865993
      ],
      [
        "▁knife",
        -10.214106617381843
      ],
      [
        "▁Exeter",
        -10.214224817305523
      ],
      [
        "▁Dorset",
        -10.214246882660063
      ],
      [
        "▁Naples",
        -10.214247519037304
      ],
      [
        "▁enmity",
        -10.214253954383086
      ],
      [
        "▁temple",
        -10.214313468351344
      ],
      [
        "▁earnest",
        -10.214334258780452
      ],
      [
        "▁captain",
        -10.214341431506195
      ],
      [
        "▁Soldier",
        -10.214353610559545
      ],
      [
        "▁special",
        -10.214376011068195
      ],
      [
        "▁torture",
        -10.214379912847829
      ],
      [
        "▁disease",
        -10.214424364646518
      ],
      [
        "▁increase",
        -10.214449743912736
      ],
      [
        "▁thief",
        -10.214463335886443
      ],
      [
        "▁ma",
        -10.21450550167144
      ],
      [
        "d;",
        -10.214514088894695
      ],
      [
        "▁monstrous",
        -10.214522028759912
      ],
      [
        "▁unknown",
        -10.214523679781568
      ],
      [
        "▁Boatswain",
        -10.214525249767497
      ],
      [
        "▁perpetual",
        -10.214559826394648
      ],
      [
        "▁resolution",
        -10.21457242883119
      ],
      [
        "▁commission",
        -10.214587143939776
      ],
      [
        "▁treacherous",
        -10.214600294712639
      ],
      [
        "▁absent",
        -10.214712953940216
      ],
      [
        "▁accept",
        -10.214749984106103
      ],
      [
        "▁prosperous",
        -10.214920445700836
      ],
      [
        "▁supper",
        -10.214963270447118
      ],
      [
        "▁roar",
        -10.214994421432849
      ],
      [
        "▁condemn'd",
        -10.215165363612352
      ],
      [
        "▁she'",
        -10.21530711255376
      ],
      [
        "▁hateful",
        -10.215348962303445
      ],
      [
        "▁behalf",
        -10.215350130804062
      ],
      [
        "▁suspicion",
        -10.215389427439781
      ],
      [
        "▁acquaint",
        -10.2155203713732
      ],
      [
        "▁bare",
        -10.215529146832207
      ],
      [
        "▁Whither",
        -10.216012575380542
      ],
      [
        "▁Long",
        -10.21616062188912
      ],
      [
        "▁perform'd",
        -10.216352398260751
      ],
      [
        "▁rash",
        -10.216376024733774
      ],
      [
        "▁hid",
        -10.216528208565926
      ],
      [
        "▁woo'd",
        -10.21665990418515
      ],
      [
        "▁nought",
        -10.217221400588052
      ],
      [
        "▁granted",
        -10.217238600129924
      ],
      [
        "▁Post",
        -10.217356660706905
      ],
      [
        "▁respected",
        -10.217368493565374
      ],
      [
        "▁weather",
        -10.217452681264927
      ],
      [
        "do",
        -10.217880823475257
      ],
      [
        "▁carrie",
        -10.217990061008324
      ],
      [
        "▁treasure",
        -10.218131459354815
      ],
      [
        "▁reverend",
        -10.218231395007539
      ],
      [
        "time",
        -10.218307833491147
      ],
      [
        "▁Gentlemen",
        -10.218492200838979
      ],
      [
        "▁estate",
        -10.219133870725875
      ],
      [
        "▁scene",
        -10.219180470774022
      ],
      [
        "▁freely",
        -10.21938413853494
      ],
      [
        "▁Dear",
        -10.219415420909533
      ],
      [
        "▁island",
        -10.219907386939738
      ],
      [
        "▁Lay",
        -10.219952000532924
      ],
      [
        "▁say'st",
        -10.220948557754728
      ],
      [
        "▁sharp",
        -10.221023178525769
      ],
      [
        "▁March",
        -10.221339280814831
      ],
      [
        "▁slay",
        -10.221522620829269
      ],
      [
        "▁pack",
        -10.221946183155794
      ],
      [
        "▁Came",
        -10.222562275019861
      ],
      [
        "▁camest",
        -10.22260471170458
      ],
      [
        "▁blessing",
        -10.223762849930347
      ],
      [
        "▁terms",
        -10.224198273719862
      ],
      [
        "▁Widow",
        -10.224299990146177
      ],
      [
        "om",
        -10.225115086040416
      ],
      [
        "▁Sicilia",
        -10.225721607393854
      ],
      [
        "▁side,",
        -10.227351048065078
      ],
      [
        "▁join'd",
        -10.227600894282249
      ],
      [
        "▁flies",
        -10.227708015635868
      ],
      [
        "but",
        -10.227764083478604
      ],
      [
        "▁fear'd",
        -10.227785291841661
      ],
      [
        "▁wide",
        -10.228835632418306
      ],
      [
        "▁Amen",
        -10.229333987162144
      ],
      [
        "▁giving",
        -10.2294165598804
      ],
      [
        "▁friendly",
        -10.229449176048135
      ],
      [
        "▁en",
        -10.22992864144286
      ],
      [
        "▁nativ",
        -10.230503596998918
      ],
      [
        "▁kin",
        -10.23156283531241
      ],
      [
        "▁sh",
        -10.23164452672863
      ],
      [
        "n,",
        -10.23188332554798
      ],
      [
        "▁sky",
        -10.232105117464693
      ],
      [
        "▁contented",
        -10.236512012075874
      ],
      [
        "▁deserves",
        -10.236729088887152
      ],
      [
        "'tis",
        -10.237419672460296
      ],
      [
        "▁odds",
        -10.237734621434885
      ],
      [
        "▁drops",
        -10.238762582771606
      ],
      [
        "ure",
        -10.243235234350454
      ],
      [
        "▁curses",
        -10.244843996420162
      ],
      [
        "▁mayor",
        -10.246599275781406
      ],
      [
        "▁drums",
        -10.246764101301947
      ],
      [
        "UR",
        -10.247382130926653
      ],
      [
        "play'd",
        -10.247494590854716
      ],
      [
        "▁AEdile",
        -10.250516188900043
      ],
      [
        "▁elder",
        -10.254195976710978
      ],
      [
        "▁what?",
        -10.254751398138263
      ],
      [
        "▁parts",
        -10.25480959183704
      ],
      [
        "▁manners",
        -10.255247645937956
      ],
      [
        "one,",
        -10.256097257039821
      ],
      [
        "ied",
        -10.25631070141612
      ],
      [
        "▁leads",
        -10.257602009790473
      ],
      [
        "▁slaughter",
        -10.258386756541324
      ],
      [
        "▁nobles",
        -10.258428466007926
      ],
      [
        "▁hat",
        -10.258791847981366
      ],
      [
        "ne",
        -10.259164050314748
      ],
      [
        "And",
        -10.260426746417163
      ],
      [
        "▁rascal",
        -10.261517900131029
      ],
      [
        "urst",
        -10.261895627326139
      ],
      [
        "▁fright",
        -10.263747725542636
      ],
      [
        "teous",
        -10.264363561906396
      ],
      [
        "▁east",
        -10.265032313256796
      ],
      [
        "▁shine",
        -10.267838361443598
      ],
      [
        "▁joys",
        -10.268573260580862
      ],
      [
        "▁entertain",
        -10.270594518377877
      ],
      [
        "▁purse",
        -10.27136653778356
      ],
      [
        "▁horses",
        -10.273550237171523
      ],
      [
        "▁trumpet",
        -10.274064762299973
      ],
      [
        "▁gift",
        -10.27538764486848
      ],
      [
        "▁desert",
        -10.275938818142194
      ],
      [
        "▁brief,",
        -10.276446708083673
      ],
      [
        "▁gall",
        -10.276943017688966
      ],
      [
        "▁seas",
        -10.277373230874836
      ],
      [
        "der",
        -10.278946743939148
      ],
      [
        "▁image",
        -10.279751064911064
      ],
      [
        "▁smiles",
        -10.28090307181675
      ],
      [
        "▁pitch",
        -10.282085601336377
      ],
      [
        "▁God!",
        -10.28227574219194
      ],
      [
        "▁seeming",
        -10.283235876398965
      ],
      [
        "▁stroke",
        -10.283240878689575
      ],
      [
        "▁whip",
        -10.2832737836515
      ],
      [
        "▁grows",
        -10.283448676540365
      ],
      [
        "▁serves",
        -10.28367329268168
      ],
      [
        "▁wants",
        -10.285696577635969
      ],
      [
        "▁afford",
        -10.286121963283714
      ],
      [
        "edant",
        -10.288469800722796
      ],
      [
        "▁slip",
        -10.289390672687665
      ],
      [
        "▁cap",
        -10.290491934086884
      ],
      [
        "▁isle",
        -10.292490260283136
      ],
      [
        "cursed",
        -10.294020880048503
      ],
      [
        "▁wot",
        -10.295547677613781
      ],
      [
        "▁long.",
        -10.296247670601192
      ],
      [
        "▁inform",
        -10.297071538964401
      ],
      [
        "▁profit",
        -10.297237290917145
      ],
      [
        "▁worn",
        -10.297581819145867
      ],
      [
        "▁grieve",
        -10.301138481649176
      ],
      [
        "▁bird",
        -10.302073529942117
      ],
      [
        "▁SA",
        -10.303303358391169
      ],
      [
        "▁'twi",
        -10.304074042878856
      ],
      [
        "▁profess",
        -10.305672797705121
      ],
      [
        "led",
        -10.305922211582743
      ],
      [
        "▁mount",
        -10.307380692572602
      ],
      [
        "▁expect",
        -10.308116745503028
      ],
      [
        "▁names",
        -10.308344308616803
      ],
      [
        "▁bow",
        -10.308344844599842
      ],
      [
        "▁prick",
        -10.309210861788529
      ],
      [
        "▁sail",
        -10.309236440311505
      ],
      [
        "▁catch",
        -10.31009601623427
      ],
      [
        "▁crack",
        -10.311214393615602
      ],
      [
        "▁breed",
        -10.311329616947662
      ],
      [
        "▁ripe",
        -10.311621010475946
      ],
      [
        "UGH",
        -10.311679431353593
      ],
      [
        "▁aught",
        -10.312148384574956
      ],
      [
        "▁begun",
        -10.312202351195547
      ],
      [
        "▁painte",
        -10.312382979513604
      ],
      [
        "▁third",
        -10.312853372207883
      ],
      [
        "▁stuff",
        -10.312937033547785
      ],
      [
        "▁conceit",
        -10.313020131120224
      ],
      [
        "▁raise",
        -10.313125838836278
      ],
      [
        "▁equal",
        -10.313528491043282
      ],
      [
        "▁avoid",
        -10.313608601610845
      ],
      [
        "▁solemn",
        -10.313820588737284
      ],
      [
        "▁Ghost",
        -10.31383784914771
      ],
      [
        "▁daily",
        -10.313883987798885
      ],
      [
        "▁advice",
        -10.313908912383845
      ],
      [
        "▁thrice",
        -10.31394620031402
      ],
      [
        "▁Titus",
        -10.313998422093672
      ],
      [
        "▁perforce",
        -10.314026745252297
      ],
      [
        "▁escape",
        -10.314056020618407
      ],
      [
        "▁Pomfret",
        -10.314089004069684
      ],
      [
        "▁Ireland",
        -10.314098029847093
      ],
      [
        "▁journey",
        -10.31410100611042
      ],
      [
        "▁garland",
        -10.314105301205714
      ],
      [
        "▁Rosaline",
        -10.314175300668495
      ],
      [
        "▁Ratcliff",
        -10.314175397628855
      ],
      [
        "▁Huntsman",
        -10.314176647702855
      ],
      [
        "▁revolt",
        -10.314190505701507
      ],
      [
        "▁sanctuary",
        -10.314238616367803
      ],
      [
        "▁yoke",
        -10.314249301493419
      ],
      [
        "▁afternoon",
        -10.314263923440322
      ],
      [
        "▁parliament",
        -10.314299121568828
      ],
      [
        "▁Conspirator",
        -10.314349207738465
      ],
      [
        "▁committed",
        -10.31436610020868
      ],
      [
        "▁imprisonment",
        -10.314389066045916
      ],
      [
        "▁according",
        -10.314406596109293
      ],
      [
        "▁silent",
        -10.314509613408175
      ],
      [
        "▁maintain",
        -10.31467428644694
      ],
      [
        "▁aboard",
        -10.314956222671762
      ],
      [
        "▁loyal",
        -10.31500930816501
      ],
      [
        "▁conjure",
        -10.316399943387857
      ],
      [
        "▁Count",
        -10.316482910465385
      ],
      [
        "▁arrived",
        -10.317000884893066
      ],
      [
        "▁veins",
        -10.317759849419918
      ],
      [
        "▁habit",
        -10.31796210760406
      ],
      [
        "▁wholesome",
        -10.318616105516163
      ],
      [
        "▁Down",
        -10.3188588575305
      ],
      [
        "▁faithful",
        -10.318859813700179
      ],
      [
        "▁AB",
        -10.319023721270824
      ],
      [
        "▁torch",
        -10.31967018136149
      ],
      [
        "▁greatest",
        -10.320290677282523
      ],
      [
        "▁forbear",
        -10.320334906915448
      ],
      [
        "▁assured",
        -10.320335186955198
      ],
      [
        "▁privilege",
        -10.32034524253086
      ],
      [
        "▁conduct",
        -10.320554791580804
      ],
      [
        "▁pi",
        -10.32071560553394
      ],
      [
        "▁mile",
        -10.320731872106695
      ],
      [
        "▁gently",
        -10.320789399485934
      ],
      [
        "▁nobly",
        -10.321103973063018
      ],
      [
        "▁season",
        -10.321158968035231
      ],
      [
        "▁loud",
        -10.32192073745805
      ],
      [
        "▁lusty",
        -10.32202272065677
      ],
      [
        "▁Re",
        -10.32244707075587
      ],
      [
        "▁willingly",
        -10.32258348369044
      ],
      [
        "▁Young",
        -10.32416966271196
      ],
      [
        "▁urged",
        -10.324183493291098
      ],
      [
        "▁lion",
        -10.324805429543533
      ],
      [
        "'re",
        -10.32496142353227
      ],
      [
        "▁accused",
        -10.325373861313292
      ],
      [
        "▁brother.",
        -10.325651948474187
      ],
      [
        "▁current",
        -10.326177335279107
      ],
      [
        "▁Froth",
        -10.326539819763012
      ],
      [
        "▁afflict",
        -10.326838601277963
      ],
      [
        "▁jealous",
        -10.326933990048246
      ],
      [
        "▁amazed",
        -10.327027699770621
      ],
      [
        "▁dying",
        -10.327089068819793
      ],
      [
        "▁streets",
        -10.32790348688892
      ],
      [
        "-face",
        -10.328506814396569
      ],
      [
        "▁soundly",
        -10.329303746725797
      ],
      [
        "▁chase",
        -10.32950441690292
      ],
      [
        "▁brings",
        -10.330038802956555
      ],
      [
        "▁possess",
        -10.330209858326388
      ],
      [
        "▁feed",
        -10.330216443937644
      ],
      [
        "▁supposed",
        -10.330679698291537
      ],
      [
        "▁peers",
        -10.330955444105443
      ],
      [
        "▁whereof",
        -10.331285358930135
      ],
      [
        "▁cup",
        -10.332050475320154
      ],
      [
        "▁branch",
        -10.33224293162834
      ],
      [
        "▁birth,",
        -10.333227036470387
      ],
      [
        "▁instruments",
        -10.333717525343307
      ],
      [
        "▁kindly",
        -10.334110866631736
      ],
      [
        "▁star",
        -10.334201055068679
      ],
      [
        "▁husband's",
        -10.334241736321978
      ],
      [
        "this",
        -10.334731029732875
      ],
      [
        "▁X",
        -10.334900138665954
      ],
      [
        "▁purchase",
        -10.335521487770738
      ],
      [
        "▁fish",
        -10.33688060955959
      ],
      [
        "▁Paulina",
        -10.337375082420248
      ],
      [
        "▁stranger",
        -10.337569635076699
      ],
      [
        "▁Madam",
        -10.33771007520272
      ],
      [
        "▁feeling",
        -10.339012935390349
      ],
      [
        "▁groans",
        -10.339141523367568
      ],
      [
        "▁hanged",
        -10.339452060244046
      ],
      [
        "▁appeal",
        -10.339946431025977
      ],
      [
        "▁county",
        -10.340014935200745
      ],
      [
        "▁winds",
        -10.341241444130901
      ],
      [
        "▁Peda",
        -10.341986919110338
      ],
      [
        "▁wits",
        -10.342462949900552
      ],
      [
        "▁constant",
        -10.34296465047121
      ],
      [
        "▁once,",
        -10.343306963925293
      ],
      [
        "▁lovely",
        -10.344419869589455
      ],
      [
        "▁darest",
        -10.344550468420758
      ],
      [
        "▁revenged",
        -10.344664573195775
      ],
      [
        "▁tide",
        -10.345133360424915
      ],
      [
        "▁Jack",
        -10.346972563537244
      ],
      [
        "▁allow",
        -10.34868246111731
      ],
      [
        "▁wept",
        -10.3489567469009
      ],
      [
        "▁ruth",
        -10.349386886632015
      ],
      [
        "▁boots",
        -10.349984213078496
      ],
      [
        "▁count",
        -10.350978175089942
      ],
      [
        "er.",
        -10.353507767453888
      ],
      [
        "▁princes",
        -10.3535974625885
      ],
      [
        "ish",
        -10.35393274172523
      ],
      [
        "▁alike",
        -10.35410329630172
      ],
      [
        "▁muster",
        -10.354148504321856
      ],
      [
        "▁affections",
        -10.355391410747876
      ],
      [
        "▁be,",
        -10.358997908818447
      ],
      [
        "▁fare",
        -10.360420624993449
      ],
      [
        "▁sooth",
        -10.360691935281139
      ],
      [
        "▁charged",
        -10.36076586350125
      ],
      [
        "▁ride",
        -10.360940384980207
      ],
      [
        "RIAN",
        -10.36151719271727
      ],
      [
        "▁vows",
        -10.361651840216453
      ],
      [
        "▁low",
        -10.368377795580969
      ],
      [
        "end",
        -10.370112869397598
      ],
      [
        "▁comest",
        -10.370506169025685
      ],
      [
        "▁'tw",
        -10.371544373499406
      ],
      [
        "▁course,",
        -10.3719416204684
      ],
      [
        "▁Thanks",
        -10.372103233321006
      ],
      [
        "▁Offic",
        -10.372645600937412
      ],
      [
        "taught",
        -10.373460225348966
      ],
      [
        "▁bearing",
        -10.37619993014782
      ],
      [
        "MON",
        -10.38078322555063
      ],
      [
        "ess",
        -10.383937854907298
      ],
      [
        "▁new-",
        -10.386473539396777
      ],
      [
        "▁spit",
        -10.38694927319701
      ],
      [
        "▁abide",
        -10.38812694185326
      ],
      [
        "▁faces",
        -10.388915669924543
      ],
      [
        "▁forfeit",
        -10.389532385429092
      ],
      [
        "▁design",
        -10.390356565505245
      ],
      [
        "▁heart;",
        -10.390674738816521
      ],
      [
        "▁swallow",
        -10.39098878500728
      ],
      [
        "▁aunt",
        -10.391559469043539
      ],
      [
        "▁brain",
        -10.391977436783979
      ],
      [
        "▁pu",
        -10.39329018553897
      ],
      [
        "▁wo",
        -10.393402915839646
      ],
      [
        "▁groan",
        -10.393591146994979
      ],
      [
        "▁Qu",
        -10.39433893456061
      ],
      [
        "▁waste",
        -10.395530678480943
      ],
      [
        "▁bade",
        -10.396097430686478
      ],
      [
        "▁revel",
        -10.397011886347732
      ],
      [
        "▁wor",
        -10.397272859504525
      ],
      [
        "▁red",
        -10.397441888811922
      ],
      [
        "▁melt",
        -10.398127225832587
      ],
      [
        "▁rose",
        -10.39877590739426
      ],
      [
        "▁wood",
        -10.399545690050271
      ],
      [
        "▁son!",
        -10.399748349457628
      ],
      [
        "XE",
        -10.400149379670136
      ],
      [
        "eign",
        -10.400874178878487
      ],
      [
        "▁daughters",
        -10.403008604088484
      ],
      [
        "▁complain",
        -10.404509987585001
      ],
      [
        "ture",
        -10.404855433815799
      ],
      [
        "▁glori",
        -10.405257052901979
      ],
      [
        "ge",
        -10.4069208879559
      ],
      [
        "▁pound",
        -10.407695322452282
      ],
      [
        "▁lust",
        -10.408153778873492
      ],
      [
        "ity,",
        -10.409133694230025
      ],
      [
        "▁on.",
        -10.409266497117436
      ],
      [
        "▁cease",
        -10.411403805398344
      ],
      [
        "▁oak",
        -10.411572737486843
      ],
      [
        "▁remove",
        -10.412721830488955
      ],
      [
        "▁virgin",
        -10.413425020578844
      ],
      [
        "▁censure",
        -10.41391617432845
      ],
      [
        "▁retire",
        -10.414990500549994
      ],
      [
        "▁disgrace",
        -10.415087564916586
      ],
      [
        "▁require",
        -10.415735570961361
      ],
      [
        "▁well-",
        -10.415808048082246
      ],
      [
        "▁store",
        -10.416945213514147
      ],
      [
        "▁assure",
        -10.41795244322186
      ],
      [
        "▁mo",
        -10.41798223574251
      ],
      [
        "▁heed",
        -10.418139387801807
      ],
      [
        "honour'd",
        -10.4184924742754
      ],
      [
        "▁dish",
        -10.418494655771958
      ],
      [
        "▁determine",
        -10.419174214863443
      ],
      [
        "▁tremble",
        -10.421374516465207
      ],
      [
        "▁fashion",
        -10.422304615400478
      ],
      [
        "▁Vienna",
        -10.42275169473746
      ],
      [
        "▁Proceed",
        -10.422751810713777
      ],
      [
        "▁Tyrrel",
        -10.42275190968787
      ],
      [
        "▁Caesar",
        -10.422752523516884
      ],
      [
        "▁Derby",
        -10.422753402138918
      ],
      [
        "▁vessel",
        -10.422753643407287
      ],
      [
        "▁tyranny",
        -10.422759552043608
      ],
      [
        "▁sullen",
        -10.422760180743582
      ],
      [
        "▁barren",
        -10.42278518879733
      ],
      [
        "▁league",
        -10.422785977926964
      ],
      [
        "▁stopp'd",
        -10.422796952507111
      ],
      [
        "▁blunt",
        -10.422808148314342
      ],
      [
        "▁tempest",
        -10.422825149392002
      ],
      [
        "▁salt",
        -10.422833580307389
      ],
      [
        "▁Milan",
        -10.422858307241917
      ],
      [
        "▁regard",
        -10.422905967003512
      ],
      [
        "▁twain",
        -10.423004320146948
      ],
      [
        "▁Fourth",
        -10.423057059430816
      ],
      [
        "▁froward",
        -10.423076363027704
      ],
      [
        "▁defence",
        -10.423229106057935
      ],
      [
        "▁redeem",
        -10.423272516595572
      ],
      [
        "▁prevent",
        -10.423416073026202
      ],
      [
        "▁rebellion",
        -10.423494906982365
      ],
      [
        "▁infant",
        -10.42356708709473
      ],
      [
        "▁holp",
        -10.423630249458798
      ],
      [
        "▁unhappy",
        -10.42377334343922
      ],
      [
        "▁penitent",
        -10.423872738632273
      ],
      [
        "▁Noble",
        -10.423965043848773
      ],
      [
        "▁dignity",
        -10.423965150048092
      ],
      [
        "▁assist",
        -10.424117222081815
      ],
      [
        "▁forswear",
        -10.424733992465086
      ],
      [
        "▁scar",
        -10.424735489569473
      ],
      [
        "▁descend",
        -10.42485381467051
      ],
      [
        "▁remorse",
        -10.424877968461399
      ],
      [
        "▁devotion",
        -10.424958077981838
      ],
      [
        "▁exercise",
        -10.424972577098313
      ],
      [
        "▁appetite",
        -10.424973414021887
      ],
      [
        "▁monument",
        -10.424974596242448
      ],
      [
        "▁exchange",
        -10.424985420111135
      ],
      [
        "▁alliance",
        -10.424986003351892
      ],
      [
        "▁Salisbury",
        -10.42504343673498
      ],
      [
        "▁impossible",
        -10.425081976180696
      ],
      [
        "▁bridegroom",
        -10.425094801026406
      ],
      [
        "▁melancholy",
        -10.425094845743116
      ],
      [
        "▁direction",
        -10.425135020092906
      ],
      [
        "▁market-place",
        -10.425179222387445
      ],
      [
        "▁conference",
        -10.425206702468081
      ],
      [
        "▁deceit",
        -10.42524279868248
      ],
      [
        "▁falsehood",
        -10.42525422574738
      ],
      [
        "▁apparent",
        -10.425260924969017
      ],
      [
        "▁entertainment",
        -10.425274234091336
      ],
      [
        "▁secure",
        -10.425512677038189
      ],
      [
        "▁tarry",
        -10.425512846818759
      ],
      [
        "▁mistrust",
        -10.4256648688143
      ],
      [
        "▁dies",
        -10.425980466278356
      ],
      [
        "▁household",
        -10.426006890648832
      ],
      [
        "r,",
        -10.426365792872375
      ],
      [
        "▁offended",
        -10.426558838836865
      ],
      [
        "rest",
        -10.426663375639913
      ],
      [
        "▁powerful",
        -10.42701813752775
      ],
      [
        "▁fancy",
        -10.4272299881271
      ],
      [
        "▁obedient",
        -10.427370766942289
      ],
      [
        "▁Six",
        -10.42751562320041
      ],
      [
        "▁pawn",
        -10.427658290943903
      ],
      [
        "▁Live",
        -10.427801531598774
      ],
      [
        "▁alack",
        -10.427974633364311
      ],
      [
        "▁Wilt",
        -10.428078545700991
      ],
      [
        "▁sins",
        -10.428421140535834
      ],
      [
        "▁fairest",
        -10.428620961962267
      ],
      [
        "▁sickness",
        -10.428626200562691
      ],
      [
        "▁lean",
        -10.428665204959694
      ],
      [
        "▁patricians",
        -10.428721034047411
      ],
      [
        "y;",
        -10.428843896742187
      ],
      [
        "▁betimes",
        -10.428850754023113
      ],
      [
        "▁pretti",
        -10.429012222783655
      ],
      [
        "▁iron",
        -10.429598353116415
      ],
      [
        "▁follow'd",
        -10.429851066745163
      ],
      [
        "ound",
        -10.429896889236904
      ],
      [
        "▁executioner",
        -10.43078753118858
      ],
      [
        "▁determined",
        -10.430985940579626
      ],
      [
        "▁import",
        -10.431117962639323
      ],
      [
        "▁saying",
        -10.431339252930957
      ],
      [
        "▁weight",
        -10.43208637799078
      ],
      [
        "▁stole",
        -10.432284280128638
      ],
      [
        "▁forgive",
        -10.432299727053916
      ],
      [
        "▁imagine",
        -10.43241074466249
      ],
      [
        "▁surely",
        -10.433624681351233
      ],
      [
        "▁ruled",
        -10.433671065732842
      ],
      [
        "▁pursue",
        -10.433744874565427
      ],
      [
        "bear",
        -10.434179225741705
      ],
      [
        "▁contempt",
        -10.43430489489129
      ],
      [
        "it.",
        -10.43532536224066
      ],
      [
        "▁conceive",
        -10.43553014085192
      ],
      [
        "▁bury",
        -10.436048955813298
      ],
      [
        "▁beholding",
        -10.43661027280644
      ],
      [
        "▁figure",
        -10.436882216118544
      ],
      [
        "▁lance",
        -10.437609826194402
      ],
      [
        "▁withdraw",
        -10.438495732163483
      ],
      [
        "▁besides",
        -10.439069828887424
      ],
      [
        "▁reverence",
        -10.439628753275608
      ],
      [
        "▁gallant",
        -10.439840773800237
      ],
      [
        "▁below",
        -10.439942060755412
      ],
      [
        "▁wake",
        -10.440170748711394
      ],
      [
        "▁food",
        -10.44069446424264
      ],
      [
        "▁powers",
        -10.440918558214058
      ],
      [
        "▁hasty",
        -10.442143984932164
      ],
      [
        "▁finds",
        -10.443078999034675
      ],
      [
        "▁tempt",
        -10.44335176357507
      ],
      [
        "▁stain'd",
        -10.443902635265966
      ],
      [
        "other's",
        -10.443946447637156
      ],
      [
        "▁strew",
        -10.44449332929927
      ],
      [
        "OVE",
        -10.444818372272117
      ],
      [
        "▁feet",
        -10.44509615269378
      ],
      [
        "LIS",
        -10.445296479216982
      ],
      [
        "▁Fare",
        -10.447260503648767
      ],
      [
        "raised",
        -10.447513837928057
      ],
      [
        "▁breathed",
        -10.447990404582988
      ],
      [
        "▁rega",
        -10.448316926191419
      ],
      [
        "wise",
        -10.448724480012752
      ],
      [
        "▁task",
        -10.449042892701396
      ],
      [
        "ut",
        -10.450213566742606
      ],
      [
        "▁boy!",
        -10.450324896793639
      ],
      [
        "▁clo",
        -10.4503564760437
      ],
      [
        "▁Dis",
        -10.450882672847282
      ],
      [
        "▁pre",
        -10.45168501227202
      ],
      [
        "▁record",
        -10.451888423263627
      ],
      [
        "▁looking",
        -10.453166762764187
      ],
      [
        "▁unjust",
        -10.453440708873817
      ],
      [
        "▁careful",
        -10.453474202358823
      ],
      [
        "ments",
        -10.453612641795342
      ],
      [
        "▁brace",
        -10.454054213518265
      ],
      [
        "▁arm'd",
        -10.45650852172192
      ],
      [
        "ant",
        -10.457312845408879
      ],
      [
        "▁disma",
        -10.45765573349972
      ],
      [
        "▁parting",
        -10.457921384500034
      ],
      [
        "▁pr",
        -10.457933509173143
      ],
      [
        "▁crowns",
        -10.458846501862272
      ],
      [
        "shrew",
        -10.460614038475978
      ],
      [
        "▁'for",
        -10.460848571836163
      ],
      [
        "▁waking",
        -10.461008394901079
      ],
      [
        "▁meeting",
        -10.461169451290804
      ],
      [
        "▁sell",
        -10.461412174597537
      ],
      [
        "▁self-",
        -10.461840852167036
      ],
      [
        "▁Become",
        -10.462011441594772
      ],
      [
        "▁snow",
        -10.463171874396366
      ],
      [
        "▁spy",
        -10.463389582317552
      ],
      [
        "▁pierce",
        -10.464156067179708
      ],
      [
        "▁forced",
        -10.465075717306243
      ],
      [
        "▁morn",
        -10.465531186659632
      ],
      [
        "▁ours",
        -10.466321664931826
      ],
      [
        "▁They'",
        -10.468606359830762
      ],
      [
        "▁extremes",
        -10.469460376489346
      ],
      [
        "▁holds",
        -10.470932189798281
      ],
      [
        "▁edge",
        -10.471971948611579
      ],
      [
        "ian",
        -10.472165321642077
      ],
      [
        "▁ago",
        -10.472913709159409
      ],
      [
        "▁banished",
        -10.475066623281098
      ],
      [
        "▁desires",
        -10.47732880774885
      ],
      [
        "▁ope",
        -10.477371427481785
      ],
      [
        "▁coat",
        -10.477987456561648
      ],
      [
        "▁sake.",
        -10.480406026181475
      ],
      [
        "▁miss",
        -10.480543631512708
      ],
      [
        "any",
        -10.481197202299045
      ],
      [
        "ck",
        -10.4812804563642
      ],
      [
        "▁princess",
        -10.481301566647012
      ],
      [
        "ual",
        -10.481868376048808
      ],
      [
        "▁Uncl",
        -10.482444052936687
      ],
      [
        "▁beasts",
        -10.483135687159795
      ],
      [
        "▁rail",
        -10.483183876655652
      ],
      [
        "here's",
        -10.48612662348301
      ],
      [
        "shall",
        -10.48929826318895
      ],
      [
        "▁Ho",
        -10.491227733447852
      ],
      [
        "▁fe",
        -10.491965820718947
      ],
      [
        "▁ba",
        -10.493160665736523
      ],
      [
        "▁Br",
        -10.494011650914778
      ],
      [
        "▁bar",
        -10.49479494439919
      ],
      [
        "▁tall",
        -10.495096597006832
      ],
      [
        "▁com",
        -10.495645635346193
      ],
      [
        "▁body,",
        -10.496822389112975
      ],
      [
        "▁whet",
        -10.49783220787937
      ],
      [
        "▁discourse",
        -10.49878756860756
      ],
      [
        "▁standing",
        -10.498837341350168
      ],
      [
        "▁lent",
        -10.500808532948374
      ],
      [
        "▁knaves",
        -10.501627978854874
      ],
      [
        "▁lad",
        -10.503218911573573
      ],
      [
        "▁instruction",
        -10.50550487839564
      ],
      [
        "OTH",
        -10.506595232504694
      ],
      [
        "ize",
        -10.5075077626745
      ],
      [
        "worthy",
        -10.507568678274826
      ],
      [
        "▁more:",
        -10.508571968359151
      ],
      [
        "▁shrew",
        -10.509320704852623
      ],
      [
        "ld",
        -10.510459935555524
      ],
      [
        "▁la",
        -10.510514085802264
      ],
      [
        "▁beard",
        -10.511474279611303
      ],
      [
        "▁dire",
        -10.512214218181569
      ],
      [
        "aking",
        -10.514509360199517
      ],
      [
        "▁brawl",
        -10.51482545187584
      ],
      [
        "▁block",
        -10.516150487733633
      ],
      [
        "▁blot",
        -10.516347014541552
      ],
      [
        "▁hu",
        -10.516981562809255
      ],
      [
        "▁virtues",
        -10.517407754429357
      ],
      [
        "red",
        -10.518438138928246
      ],
      [
        "▁trembl",
        -10.518882544300329
      ],
      [
        "▁suitor",
        -10.520364841646469
      ],
      [
        "▁provoke",
        -10.521025459265454
      ],
      [
        "▁human",
        -10.521109267361474
      ],
      [
        "il",
        -10.52187211404557
      ],
      [
        "▁knot",
        -10.522848270095366
      ],
      [
        "▁suspect",
        -10.523465568948609
      ],
      [
        "▁swell",
        -10.52346898047496
      ],
      [
        "▁Set",
        -10.524239636573464
      ],
      [
        "--for",
        -10.524472720098293
      ],
      [
        "▁enough,",
        -10.52459349811675
      ],
      [
        "▁rank",
        -10.525128110690847
      ],
      [
        "ry,",
        -10.525385026598196
      ],
      [
        "▁over-",
        -10.526922056199346
      ],
      [
        "▁love?",
        -10.527034010757745
      ],
      [
        "▁consul,",
        -10.52724212106677
      ],
      [
        "▁modest",
        -10.527306572494252
      ],
      [
        "press'd",
        -10.527978535299761
      ],
      [
        "▁rain",
        -10.528056751382941
      ],
      [
        "▁mouths",
        -10.528285943071385
      ],
      [
        "▁shun",
        -10.530050032931506
      ],
      [
        "▁petition",
        -10.530081991049917
      ],
      [
        "son",
        -10.53247410731483
      ],
      [
        "▁accident",
        -10.533457361813376
      ],
      [
        "▁grain",
        -10.533917376667983
      ],
      [
        "▁destroy",
        -10.535753597943737
      ],
      [
        "▁books",
        -10.536519151641105
      ],
      [
        "▁reward",
        -10.536796721839552
      ],
      [
        "n'd",
        -10.538047422311141
      ],
      [
        "ried",
        -10.539214596658853
      ],
      [
        "grace.",
        -10.542235521145454
      ],
      [
        "▁keeper",
        -10.543483851636596
      ],
      [
        "▁sting",
        -10.543668708380878
      ],
      [
        "▁points",
        -10.544695202804244
      ],
      [
        "▁famous",
        -10.5447335883196
      ],
      [
        "▁public",
        -10.544950178153577
      ],
      [
        "▁top",
        -10.54585127908041
      ],
      [
        "▁weakness",
        -10.547458901975705
      ],
      [
        "▁corrupt",
        -10.547664905180387
      ],
      [
        "▁sepulchre",
        -10.547751688826057
      ],
      [
        "▁challenge",
        -10.547751691426205
      ],
      [
        "▁subtle",
        -10.547751704853091
      ],
      [
        "▁adversaries",
        -10.54775171165077
      ],
      [
        "▁Perdita",
        -10.547751713499146
      ],
      [
        "▁Lartius",
        -10.547751735270761
      ],
      [
        "▁trespass",
        -10.547751759501233
      ],
      [
        "▁object",
        -10.547751882263304
      ],
      [
        "▁shroud",
        -10.547751926617927
      ],
      [
        "▁policy",
        -10.547752156939005
      ],
      [
        "▁spleen",
        -10.547752233162186
      ],
      [
        "▁Villain",
        -10.547753761765634
      ],
      [
        "▁fierce",
        -10.547754009804244
      ],
      [
        "▁example",
        -10.547756782640588
      ],
      [
        "▁bigger",
        -10.547761231562596
      ],
      [
        "▁succeed",
        -10.5477612898441
      ],
      [
        "▁proclamation",
        -10.547761977833993
      ],
      [
        "▁zeal",
        -10.547762593815929
      ],
      [
        "▁William",
        -10.547766235901701
      ],
      [
        "▁mischance",
        -10.54777503825767
      ],
      [
        "▁beauteous",
        -10.547781967992966
      ],
      [
        "▁Bushy",
        -10.54778280234754
      ],
      [
        "▁thirty",
        -10.547783016384802
      ],
      [
        "▁Among",
        -10.54778584161873
      ],
      [
        "▁fourteen",
        -10.547801045719702
      ],
      [
        "▁confound",
        -10.547819896797435
      ],
      [
        "▁Follow",
        -10.547828570968775
      ],
      [
        "▁memory",
        -10.547855200353702
      ],
      [
        "▁triumphant",
        -10.547856057210993
      ],
      [
        "▁seldom",
        -10.547859112053077
      ],
      [
        "▁harsh",
        -10.547860562939862
      ],
      [
        "▁scandal",
        -10.547870463453378
      ],
      [
        "▁satisfy",
        -10.547885635043675
      ],
      [
        "score",
        -10.547894154041487
      ],
      [
        "▁infection",
        -10.547903559500604
      ],
      [
        "▁accursed",
        -10.547910461040777
      ],
      [
        "▁tapster",
        -10.547938789231493
      ],
      [
        "▁mirth",
        -10.547959864989096
      ],
      [
        "▁Happy",
        -10.548025093537927
      ],
      [
        "▁Tush",
        -10.548048527094073
      ],
      [
        "▁lightning",
        -10.548052817904601
      ],
      [
        "▁absolute",
        -10.54813146620083
      ],
      [
        "▁reap",
        -10.548185846932835
      ],
      [
        "▁appointed",
        -10.548272519940618
      ],
      [
        "▁pause",
        -10.548274136725123
      ],
      [
        "▁Return",
        -10.54828045054623
      ],
      [
        "▁Behold",
        -10.548359890320562
      ],
      [
        "▁heartily",
        -10.548475955400436
      ],
      [
        "▁Mariana",
        -10.548694996800885
      ],
      [
        "▁Hail",
        -10.548715827532392
      ],
      [
        "▁statue",
        -10.548787311224167
      ],
      [
        "▁week",
        -10.548895144279527
      ],
      [
        "▁Up",
        -10.549096093013226
      ],
      [
        "▁proclaim'd",
        -10.549237249521598
      ],
      [
        "▁wager",
        -10.549327561279071
      ],
      [
        "▁refuse",
        -10.549506488663821
      ],
      [
        "▁mystery",
        -10.549793147142601
      ],
      [
        "▁scold",
        -10.54989894783975
      ],
      [
        "▁countrymen",
        -10.54998718636691
      ],
      [
        "▁opposite",
        -10.550065189061538
      ],
      [
        "▁burst",
        -10.550284155610726
      ],
      [
        "▁temper",
        -10.550284554296077
      ],
      [
        "▁manage",
        -10.550421001398181
      ],
      [
        "▁slaves",
        -10.550458452579804
      ],
      [
        "▁extremity",
        -10.551169825847767
      ],
      [
        "▁repose",
        -10.551174165581754
      ],
      [
        "▁supply",
        -10.551283006392836
      ],
      [
        "▁Sound",
        -10.551428600517484
      ],
      [
        "▁plainly",
        -10.551616377453197
      ],
      [
        "▁began",
        -10.551759462599893
      ],
      [
        "▁chaste",
        -10.55176405227611
      ],
      [
        "▁descent",
        -10.552016471091253
      ],
      [
        "▁ends",
        -10.55210771755668
      ],
      [
        "▁dowry",
        -10.55217644938785
      ],
      [
        "▁stronger",
        -10.552244577692592
      ],
      [
        "▁dishonour'd",
        -10.552885175984464
      ],
      [
        "▁dearest",
        -10.553041275397337
      ],
      [
        "▁youngest",
        -10.553092020732283
      ],
      [
        "▁Italy",
        -10.553459928755462
      ],
      [
        "▁greatness",
        -10.553489121537512
      ],
      [
        "▁axe",
        -10.55396984238148
      ],
      [
        "▁Fair",
        -10.553978630728349
      ],
      [
        "l'd",
        -10.554416793071919
      ],
      [
        "▁swain",
        -10.554559355763152
      ],
      [
        "▁sweat",
        -10.555066896137578
      ],
      [
        "▁thread",
        -10.555433308894964
      ],
      [
        "▁bond",
        -10.555852970660723
      ],
      [
        "▁speak'st",
        -10.555971392392099
      ],
      [
        "▁profane",
        -10.555976817549183
      ],
      [
        "▁seem'd",
        -10.556226522851107
      ],
      [
        "▁Ever",
        -10.556972178475128
      ],
      [
        "▁executed",
        -10.556986202072657
      ],
      [
        "▁fitte",
        -10.557032276594779
      ],
      [
        "▁sue",
        -10.557125648471473
      ],
      [
        "▁car",
        -10.557948362480122
      ],
      [
        "▁beget",
        -10.558050225390192
      ],
      [
        "▁fr",
        -10.558516192137755
      ],
      [
        "▁Time",
        -10.558849108520766
      ],
      [
        "▁feather",
        -10.559944041912786
      ],
      [
        "▁writing",
        -10.559989430519257
      ],
      [
        "▁abused",
        -10.56090854027445
      ],
      [
        "▁shrewd",
        -10.560930543429071
      ],
      [
        "▁commons",
        -10.56110531417111
      ],
      [
        "▁Cry",
        -10.561126126109906
      ],
      [
        "▁Better",
        -10.561850890746204
      ],
      [
        "▁He'l",
        -10.562203133931503
      ],
      [
        "ngling",
        -10.562324802791057
      ],
      [
        "▁proportion",
        -10.562627086232593
      ],
      [
        "▁removed",
        -10.562809975032923
      ],
      [
        "▁share",
        -10.563550281446629
      ],
      [
        "▁lap",
        -10.56358056910877
      ],
      [
        "▁south",
        -10.564300529074625
      ],
      [
        "▁yielded",
        -10.564439577549894
      ],
      [
        "▁windows",
        -10.564604873594465
      ],
      [
        "▁wh",
        -10.564614566004723
      ],
      [
        "▁meddle",
        -10.565494685016318
      ],
      [
        "▁visage",
        -10.56563881788161
      ],
      [
        "▁jot",
        -10.567482159603207
      ],
      [
        "▁dearly",
        -10.568142853918905
      ],
      [
        "late",
        -10.56824662985447
      ],
      [
        "▁furnish",
        -10.568332509339891
      ],
      [
        "▁clothes",
        -10.568759466635173
      ],
      [
        "▁possess'd",
        -10.568929712521777
      ],
      [
        "▁pleasing",
        -10.56912300040467
      ],
      [
        "▁younger",
        -10.5694169210167
      ],
      [
        "▁betwi",
        -10.569654754150914
      ],
      [
        "▁cheque",
        -10.570138681862092
      ],
      [
        "▁fears",
        -10.570249457267078
      ],
      [
        "▁sweeter",
        -10.570589683797898
      ],
      [
        "▁enter'd",
        -10.570878772548278
      ],
      [
        "ck'd",
        -10.571119879145428
      ],
      [
        "▁pe",
        -10.572001573506718
      ],
      [
        "▁stretch",
        -10.573010915368672
      ],
      [
        "▁modesty",
        -10.573529675881435
      ],
      [
        "▁intelligence",
        -10.574355789993216
      ],
      [
        "▁bred",
        -10.57454696884154
      ],
      [
        "spect",
        -10.57592647604178
      ],
      [
        "▁growing",
        -10.576942132686986
      ],
      [
        "▁mend",
        -10.579071001392338
      ],
      [
        "▁steeds",
        -10.580124531493441
      ],
      [
        "▁messenger",
        -10.58032166903229
      ],
      [
        "▁Send",
        -10.58132445873127
      ],
      [
        "▁stick",
        -10.581995279979585
      ],
      [
        "icious",
        -10.582486987498056
      ],
      [
        "happily",
        -10.583319023956104
      ],
      [
        "▁boys",
        -10.583500629833448
      ],
      [
        "▁shadows",
        -10.584252033371955
      ],
      [
        "▁sore",
        -10.586700061006697
      ],
      [
        "▁lift",
        -10.587815687129789
      ],
      [
        "ness,",
        -10.589223454412982
      ],
      [
        "ondrous",
        -10.590156068944205
      ],
      [
        "▁meant",
        -10.590932788794245
      ],
      [
        "▁pin",
        -10.592019091996532
      ],
      [
        "death;",
        -10.592358011202524
      ],
      [
        "▁Me",
        -10.592450706071148
      ],
      [
        "she",
        -10.59257016137226
      ],
      [
        "▁back,",
        -10.592710852856927
      ],
      [
        "▁Off",
        -10.592770221513428
      ],
      [
        "well",
        -10.593021020994204
      ],
      [
        "ILLO",
        -10.593123754704093
      ],
      [
        "ather",
        -10.593345049447198
      ],
      [
        "ur",
        -10.593796118142903
      ],
      [
        "▁houses",
        -10.593946595208712
      ],
      [
        "▁fires",
        -10.595681236822067
      ],
      [
        "▁sets",
        -10.597131238354647
      ],
      [
        "Citizens",
        -10.598091689868431
      ],
      [
        "▁ado",
        -10.598190945368067
      ],
      [
        "▁graves",
        -10.598284724149241
      ],
      [
        "come",
        -10.60139650126468
      ],
      [
        "SO",
        -10.601767651136464
      ],
      [
        "▁yond",
        -10.601867599261396
      ],
      [
        "▁servants",
        -10.602685409769725
      ],
      [
        "▁urge",
        -10.6030111984617
      ],
      [
        "▁hapl",
        -10.603112872628186
      ],
      [
        "▁strokes",
        -10.60446445800592
      ],
      [
        "▁ill-",
        -10.607028677787618
      ],
      [
        "▁ca",
        -10.60925110448286
      ],
      [
        "▁weeps",
        -10.610177902678934
      ],
      [
        "▁trusty",
        -10.610884681039732
      ],
      [
        "▁babes",
        -10.612271405958957
      ],
      [
        "would",
        -10.612325252130013
      ],
      [
        "▁oaths",
        -10.614145071289055
      ],
      [
        "▁crow",
        -10.614291313991304
      ],
      [
        "▁up;",
        -10.61460666142786
      ],
      [
        "▁o",
        -10.615546772210932
      ],
      [
        "▁lord's",
        -10.616431703742643
      ],
      [
        "▁tooth",
        -10.616809319946007
      ],
      [
        "▁apt",
        -10.617873169295473
      ],
      [
        "▁'He",
        -10.619127902134187
      ],
      [
        "▁angel",
        -10.61917570640802
      ],
      [
        "▁Warwick!",
        -10.619382253124833
      ],
      [
        "▁son's",
        -10.62077110471063
      ],
      [
        "▁craft",
        -10.621312557473424
      ],
      [
        "▁hire",
        -10.62215939248103
      ],
      [
        "▁Hi",
        -10.622333404674634
      ],
      [
        "▁sup",
        -10.623710151934674
      ],
      [
        "▁deck",
        -10.624523641448533
      ],
      [
        "▁frowns",
        -10.627180852518414
      ],
      [
        "▁mistress,",
        -10.628227538186332
      ],
      [
        "▁swear,",
        -10.63200237832162
      ],
      [
        "▁flourish",
        -10.634818919618667
      ],
      [
        "REL",
        -10.635235912165445
      ],
      [
        "▁abuse",
        -10.635730568082902
      ],
      [
        "▁ballad",
        -10.636053476839924
      ],
      [
        "▁minute",
        -10.636075775074431
      ],
      [
        "▁Dot",
        -10.636734079233554
      ],
      [
        "▁hated",
        -10.636796165124055
      ],
      [
        "th,",
        -10.636980618590314
      ],
      [
        "some",
        -10.640341174283204
      ],
      [
        "▁'T",
        -10.641321693315486
      ],
      [
        "▁strive",
        -10.643046152185173
      ],
      [
        "▁shoulder",
        -10.643326658287334
      ],
      [
        "▁cheap",
        -10.643537242366715
      ],
      [
        "▁ways",
        -10.644677644776337
      ],
      [
        "▁si",
        -10.644732654518105
      ],
      [
        "▁weapon",
        -10.644915188601052
      ],
      [
        "▁companion",
        -10.645391488045334
      ],
      [
        "▁build",
        -10.646489180427734
      ],
      [
        "▁De",
        -10.646915423288455
      ],
      [
        "▁lovest",
        -10.64713885727292
      ],
      [
        "pe",
        -10.648615895940187
      ],
      [
        "over",
        -10.648926024985588
      ],
      [
        "▁served",
        -10.649709604998375
      ],
      [
        "▁Polixenes",
        -10.651865446212277
      ],
      [
        "▁orator",
        -10.651939080656533
      ],
      [
        "▁character",
        -10.652628208823483
      ],
      [
        "▁possession",
        -10.653897863217875
      ],
      [
        "▁Son",
        -10.654148375849406
      ],
      [
        "▁Romans",
        -10.654162563344522
      ],
      [
        "▁Him",
        -10.654973853455804
      ],
      [
        "▁smell",
        -10.65555596412959
      ],
      [
        "▁provide",
        -10.65645291487032
      ],
      [
        "▁toad",
        -10.65681895100725
      ],
      [
        "▁wakes",
        -10.65700779582935
      ],
      [
        "ies,",
        -10.65744388831478
      ],
      [
        "▁Paulina,",
        -10.657486956535207
      ],
      [
        "▁mis",
        -10.659106778575016
      ],
      [
        "▁worm",
        -10.659366999142604
      ],
      [
        "▁flow",
        -10.661842091007347
      ],
      [
        "how",
        -10.662555228048303
      ],
      [
        "▁stock",
        -10.662980410478195
      ],
      [
        "▁jewel",
        -10.663383458592676
      ],
      [
        "▁charm",
        -10.664923062279644
      ],
      [
        "▁pro",
        -10.665143692380532
      ],
      [
        "▁ever.",
        -10.666094333150776
      ],
      [
        "ship",
        -10.668077949331717
      ],
      [
        "▁Ma",
        -10.671171024595237
      ],
      [
        "▁shield",
        -10.67128774066655
      ],
      [
        "▁troop",
        -10.6735837386902
      ],
      [
        "▁date",
        -10.67387329319168
      ],
      [
        "air,",
        -10.67520897985248
      ],
      [
        "▁wink",
        -10.675260120600019
      ],
      [
        "ties",
        -10.675295485914342
      ],
      [
        "▁bra",
        -10.676347128148095
      ],
      [
        "ings",
        -10.676587194649052
      ],
      [
        "▁wealth",
        -10.678750850634357
      ],
      [
        "▁thin",
        -10.680318128291535
      ],
      [
        "▁Anon",
[...]
